{
  "version": "1.0",
  "truncation": null,
  "padding": null,
  "added_tokens": [],
  "normalizer": null,
  "pre_tokenizer": {
    "type": "Whitespace"
  },
  "post_processor": null,
  "decoder": null,
  "model": {
    "type": "BPE",
    "dropout": null,
    "unk_token": null,
    "continuing_subword_prefix": null,
    "end_of_word_suffix": null,
    "fuse_unk": false,
    "byte_fallback": false,
    "ignore_merges": false,
    "vocab": {
      "!": 0,
      "\"": 1,
      "#": 2,
      "$": 3,
      "%": 4,
      "&": 5,
      "'": 6,
      "(": 7,
      ")": 8,
      "*": 9,
      "+": 10,
      ",": 11,
      "-": 12,
      ".": 13,
      "/": 14,
      "0": 15,
      "1": 16,
      "2": 17,
      "3": 18,
      "4": 19,
      "5": 20,
      "6": 21,
      "7": 22,
      "8": 23,
      "9": 24,
      ":": 25,
      ";": 26,
      "<": 27,
      "=": 28,
      ">": 29,
      "?": 30,
      "@": 31,
      "A": 32,
      "B": 33,
      "C": 34,
      "D": 35,
      "E": 36,
      "F": 37,
      "G": 38,
      "H": 39,
      "I": 40,
      "J": 41,
      "K": 42,
      "L": 43,
      "M": 44,
      "N": 45,
      "O": 46,
      "P": 47,
      "Q": 48,
      "R": 49,
      "S": 50,
      "T": 51,
      "U": 52,
      "V": 53,
      "W": 54,
      "X": 55,
      "Y": 56,
      "Z": 57,
      "[": 58,
      "\\": 59,
      "]": 60,
      "^": 61,
      "_": 62,
      "`": 63,
      "a": 64,
      "b": 65,
      "c": 66,
      "d": 67,
      "e": 68,
      "f": 69,
      "g": 70,
      "h": 71,
      "i": 72,
      "j": 73,
      "k": 74,
      "l": 75,
      "m": 76,
      "n": 77,
      "o": 78,
      "p": 79,
      "q": 80,
      "r": 81,
      "s": 82,
      "t": 83,
      "u": 84,
      "v": 85,
      "w": 86,
      "x": 87,
      "y": 88,
      "z": 89,
      "{": 90,
      "|": 91,
      "}": 92,
      "~": 93,
      "¡": 94,
      "£": 95,
      "¥": 96,
      "©": 97,
      "¬": 98,
      "®": 99,
      "°": 100,
      "±": 101,
      "²": 102,
      "³": 103,
      "µ": 104,
      "·": 105,
      "¹": 106,
      "º": 107,
      "¼": 108,
      "½": 109,
      "¾": 110,
      "¿": 111,
      "À": 112,
      "Å": 113,
      "Ç": 114,
      "É": 115,
      "Ó": 116,
      "×": 117,
      "Ü": 118,
      "ß": 119,
      "à": 120,
      "á": 121,
      "â": 122,
      "ã": 123,
      "ä": 124,
      "æ": 125,
      "ç": 126,
      "è": 127,
      "é": 128,
      "ê": 129,
      "ë": 130,
      "í": 131,
      "î": 132,
      "ï": 133,
      "ð": 134,
      "ñ": 135,
      "ò": 136,
      "ó": 137,
      "ô": 138,
      "ö": 139,
      "÷": 140,
      "ø": 141,
      "ù": 142,
      "ú": 143,
      "û": 144,
      "ü": 145,
      "Ā": 146,
      "ā": 147,
      "ē": 148,
      "ě": 149,
      "ĝ": 150,
      "ī": 151,
      "ı": 152,
      "ł": 153,
      "ō": 154,
      "œ": 155,
      "ş": 156,
      "ū": 157,
      "ż": 158,
      "ǎ": 159,
      "ǐ": 160,
      "ȳ": 161,
      "ə": 162,
      "ɛ": 163,
      "ɪ": 164,
      "ʃ": 165,
      "ˈ": 166,
      "ː": 167,
      "˚": 168,
      "́": 169,
      "̄": 170,
      "̩": 171,
      "̲": 172,
      "͟": 173,
      "Γ": 174,
      "Δ": 175,
      "Σ": 176,
      "α": 177,
      "β": 178,
      "γ": 179,
      "δ": 180,
      "ε": 181,
      "θ": 182,
      "κ": 183,
      "λ": 184,
      "μ": 185,
      "ν": 186,
      "ο": 187,
      "π": 188,
      "ρ": 189,
      "σ": 190,
      "τ": 191,
      "ψ": 192,
      "Я": 193,
      "а": 194,
      "д": 195,
      "е": 196,
      "з": 197,
      "и": 198,
      "к": 199,
      "н": 200,
      "о": 201,
      "п": 202,
      "с": 203,
      "т": 204,
      "у": 205,
      "х": 206,
      "ц": 207,
      "ч": 208,
      "ь": 209,
      "ः": 210,
      "अ": 211,
      "ग": 212,
      "च": 213,
      "छ": 214,
      "ढ": 215,
      "प": 216,
      "फ": 217,
      "ब": 218,
      "म": 219,
      "य": 220,
      "र": 221,
      "ह": 222,
      "़": 223,
      "ा": 224,
      "ी": 225,
      "े": 226,
      "ो": 227,
      "​": 228,
      "‍": 229,
      "–": 230,
      "—": 231,
      "‖": 232,
      "‘": 233,
      "’": 234,
      "“": 235,
      "”": 236,
      "•": 237,
      "…": 238,
      "⁰": 239,
      "⁴": 240,
      "⁵": 241,
      "⁷": 242,
      "⁺": 243,
      "⁻": 244,
      "₀": 245,
      "₁": 246,
      "₂": 247,
      "₆": 248,
      "€": 249,
      "₹": 250,
      "™": 251,
      "⅓": 252,
      "⅔": 253,
      "←": 254,
      "→": 255,
      "↓": 256,
      "↔": 257,
      "⇌": 258,
      "∂": 259,
      "∑": 260,
      "−": 261,
      "∙": 262,
      "√": 263,
      "∞": 264,
      "∠": 265,
      "∣": 266,
      "∧": 267,
      "∨": 268,
      "∩": 269,
      "≈": 270,
      "≠": 271,
      "≡": 272,
      "≤": 273,
      "≥": 274,
      "⋅": 275,
      "⏰": 276,
      "─": 277,
      "│": 278,
      "┌": 279,
      "┐": 280,
      "└": 281,
      "┘": 282,
      "├": 283,
      "┤": 284,
      "┬": 285,
      "┴": 286,
      "┼": 287,
      "═": 288,
      "█": 289,
      "░": 290,
      "▓": 291,
      "▼": 292,
      "☀": 293,
      "☁": 294,
      "★": 295,
      "☕": 296,
      "☠": 297,
      "♀": 298,
      "♂": 299,
      "♕": 300,
      "♛": 301,
      "♻": 302,
      "⚠": 303,
      "⚽": 304,
      "⛰": 305,
      "✅": 306,
      "✈": 307,
      "✨": 308,
      "❄": 309,
      "❤": 310,
      "➕": 311,
      "➖": 312,
      "➡": 313,
      "⭐": 314,
      "、": 315,
      "。": 316,
      "《": 317,
      "》": 318,
      "「": 319,
      "」": 320,
      "あ": 321,
      "い": 322,
      "お": 323,
      "か": 324,
      "が": 325,
      "き": 326,
      "く": 327,
      "こ": 328,
      "ご": 329,
      "さ": 330,
      "し": 331,
      "す": 332,
      "せ": 333,
      "た": 334,
      "ち": 335,
      "て": 336,
      "で": 337,
      "と": 338,
      "な": 339,
      "に": 340,
      "の": 341,
      "は": 342,
      "ま": 343,
      "み": 344,
      "め": 345,
      "り": 346,
      "る": 347,
      "れ": 348,
      "を": 349,
      "ん": 350,
      "グ": 351,
      "プ": 352,
      "ム": 353,
      "ラ": 354,
      "ロ": 355,
      "一": 356,
      "下": 357,
      "不": 358,
      "事": 359,
      "人": 360,
      "以": 361,
      "们": 362,
      "你": 363,
      "做": 364,
      "優": 365,
      "元": 366,
      "光": 367,
      "出": 368,
      "前": 369,
      "去": 370,
      "名": 371,
      "吧": 372,
      "困": 373,
      "在": 374,
      "夕": 375,
      "外": 376,
      "夢": 377,
      "天": 378,
      "女": 379,
      "好": 380,
      "如": 381,
      "工": 382,
      "己": 383,
      "師": 384,
      "度": 385,
      "強": 386,
      "彼": 387,
      "想": 388,
      "我": 389,
      "授": 390,
      "教": 391,
      "是": 392,
      "月": 393,
      "気": 394,
      "海": 395,
      "渔": 396,
      "滩": 397,
      "生": 398,
      "由": 399,
      "的": 400,
      "目": 401,
      "知": 402,
      "私": 403,
      "空": 404,
      "精": 405,
      "美": 406,
      "而": 407,
      "能": 408,
      "自": 409,
      "色": 410,
      "论": 411,
      "语": 412,
      "難": 413,
      "雨": 414,
      "面": 415,
      "食": 416,
      "鱼": 417,
      "기": 418,
      "보": 419,
      "장": 420,
      "️": 421,
      "，": 422,
      "：": 423,
      "？": 424,
      "𝑎": 425,
      "𝑛": 426,
      "𝑥": 427,
      "🆕": 428,
      "🇦": 429,
      "🇧": 430,
      "🇨": 431,
      "🇩": 432,
      "🇪": 433,
      "🇫": 434,
      "🇬": 435,
      "🇭": 436,
      "🇮": 437,
      "🇯": 438,
      "🇰": 439,
      "🇱": 440,
      "🇲": 441,
      "🇳": 442,
      "🇴": 443,
      "🇵": 444,
      "🇶": 445,
      "🇷": 446,
      "🇸": 447,
      "🇹": 448,
      "🇺": 449,
      "🇽": 450,
      "🇿": 451,
      "🌀": 452,
      "🌃": 453,
      "🌅": 454,
      "🌊": 455,
      "🌌": 456,
      "🌍": 457,
      "🌎": 458,
      "🌞": 459,
      "🌟": 460,
      "🌧": 461,
      "🌱": 462,
      "🌲": 463,
      "🌳": 464,
      "🌴": 465,
      "🌸": 466,
      "🌻": 467,
      "🌿": 468,
      "🍃": 469,
      "🍊": 470,
      "🍌": 471,
      "🍎": 472,
      "🍓": 473,
      "🍕": 474,
      "🍗": 475,
      "🍞": 476,
      "🍩": 477,
      "🍪": 478,
      "🍯": 479,
      "🍳": 480,
      "🍴": 481,
      "🍿": 482,
      "🎂": 483,
      "🎈": 484,
      "🎉": 485,
      "🎊": 486,
      "🎓": 487,
      "🎥": 488,
      "🎧": 489,
      "🎬": 490,
      "🎮": 491,
      "🎵": 492,
      "🎶": 493,
      "🎾": 494,
      "🏀": 495,
      "🏃": 496,
      "🏈": 497,
      "🏊": 498,
      "🏒": 499,
      "🏖": 500,
      "🏡": 501,
      "🏦": 502,
      "🏻": 503,
      "🏽": 504,
      "🏾": 505,
      "🐘": 506,
      "🐛": 507,
      "🐨": 508,
      "🐮": 509,
      "🐰": 510,
      "🐱": 511,
      "🐶": 512,
      "🐹": 513,
      "🐾": 514,
      "👀": 515,
      "👊": 516,
      "👌": 517,
      "👍": 518,
      "👏": 519,
      "👓": 520,
      "👨": 521,
      "👩": 522,
      "💃": 523,
      "💆": 524,
      "💉": 525,
      "💕": 526,
      "💖": 527,
      "💙": 528,
      "💚": 529,
      "💡": 530,
      "💦": 531,
      "💪": 532,
      "💫": 533,
      "💰": 534,
      "💳": 535,
      "💸": 536,
      "💻": 537,
      "📈": 538,
      "📖": 539,
      "📚": 540,
      "📢": 541,
      "📣": 542,
      "📲": 543,
      "📺": 544,
      "🔍": 545,
      "🔒": 546,
      "🔥": 547,
      "🔬": 548,
      "🔹": 549,
      "🕷": 550,
      "🕺": 551,
      "🗳": 552,
      "🗺": 553,
      "😀": 554,
      "😁": 555,
      "😂": 556,
      "😆": 557,
      "😈": 558,
      "😉": 559,
      "😊": 560,
      "😋": 561,
      "😎": 562,
      "😱": 563,
      "😴": 564,
      "🙌": 565,
      "🙏": 566,
      "🚀": 567,
      "🚂": 568,
      "🚆": 569,
      "🚇": 570,
      "🚌": 571,
      "🚗": 572,
      "🚨": 573,
      "🚪": 574,
      "🚰": 575,
      "🚴": 576,
      "🚶": 577,
      "🛍": 578,
      "🟢": 579,
      "🤖": 580,
      "🤝": 581,
      "🤩": 582,
      "🥕": 583,
      "🥦": 584,
      "🦁": 585,
      "🦇": 586,
      "🦊": 587,
      "🦸": 588,
      "🧁": 589,
      "🧘": 590,
      "🧴": 591,
      "🧸": 592,
      "🧹": 593,
      "🧼": 594,
      "🪀": 595,
      "th": 596,
      "in": 597,
      "an": 598,
      "er": 599,
      "re": 600,
      "on": 601,
      "the": 602,
      "at": 603,
      "en": 604,
      "or": 605,
      "es": 606,
      "and": 607,
      "ing": 608,
      "al": 609,
      "to": 610,
      "is": 611,
      "ou": 612,
      "ti": 613,
      "ed": 614,
      "ar": 615,
      "of": 616,
      "as": 617,
      "le": 618,
      "it": 619,
      "ic": 620,
      "ro": 621,
      "st": 622,
      "ac": 623,
      "ent": 624,
      "he": 625,
      "ion": 626,
      "ve": 627,
      "de": 628,
      "om": 629,
      "se": 630,
      "for": 631,
      "ch": 632,
      "be": 633,
      "il": 634,
      "lo": 635,
      "ation": 636,
      "su": 637,
      "pro": 638,
      "ce": 639,
      "us": 640,
      "ly": 641,
      "tion": 642,
      "are": 643,
      "im": 644,
      "ir": 645,
      "ers": 646,
      "ge": 647,
      "ig": 648,
      "am": 649,
      "ith": 650,
      "ol": 651,
      "you": 652,
      "ad": 653,
      "that": 654,
      "ab": 655,
      "con": 656,
      "mo": 657,
      "com": 658,
      "ne": 659,
      "can": 660,
      "ter": 661,
      "tr": 662,
      "ay": 663,
      "te": 664,
      "ver": 665,
      "ess": 666,
      "The": 667,
      "ts": 668,
      "with": 669,
      "res": 670,
      "un": 671,
      "ul": 672,
      "ur": 673,
      "wh": 674,
      "ate": 675,
      "ke": 676,
      "me": 677,
      "ment": 678,
      "id": 679,
      "pe": 680,
      "ow": 681,
      "di": 682,
      "pl": 683,
      "ap": 684,
      "ma": 685,
      "ex": 686,
      "fe": 687,
      "ct": 688,
      "ld": 689,
      "ther": 690,
      "li": 691,
      "po": 692,
      "we": 693,
      "ity": 694,
      "Th": 695,
      "qu": 696,
      "ci": 697,
      "per": 698,
      "ut": 699,
      "igh": 700,
      "all": 701,
      "du": 702,
      "no": 703,
      "wor": 704,
      "cl": 705,
      "so": 706,
      "ain": 707,
      "ple": 708,
      "ri": 709,
      "their": 710,
      "um": 711,
      "your": 712,
      "sh": 713,
      "oun": 714,
      "age": 715,
      "our": 716,
      "by": 717,
      "ant": 718,
      "co": 719,
      "em": 720,
      "cre": 721,
      "form": 722,
      "ag": 723,
      "out": 724,
      "ave": 725,
      "ere": 726,
      "ach": 727,
      "ould": 728,
      "end": 729,
      "ill": 730,
      "fic": 731,
      "por": 732,
      "able": 733,
      "si": 734,
      "ure": 735,
      "vi": 736,
      "ine": 737,
      "In": 738,
      "ting": 739,
      "king": 740,
      "This": 741,
      "ll": 742,
      "ence": 743,
      "oo": 744,
      "rom": 745,
      "one": 746,
      "gr": 747,
      "cess": 748,
      "low": 749,
      "dat": 750,
      "ef": 751,
      "est": 752,
      "iz": 753,
      "from": 754,
      "str": 755,
      "tic": 756,
      "ist": 757,
      "any": 758,
      "its": 759,
      "up": 760,
      "have": 761,
      "port": 762,
      "ds": 763,
      "et": 764,
      "pr": 765,
      "hel": 766,
      "pre": 767,
      "tions": 768,
      "gh": 769,
      "ight": 770,
      "ally": 771,
      "ome": 772,
      "tive": 773,
      "was": 774,
      "fer": 775,
      "use": 776,
      "op": 777,
      "av": 778,
      "ance": 779,
      "help": 780,
      "data": 781,
      "more": 782,
      "der": 783,
      "such": 784,
      "enti": 785,
      "ies": 786,
      "tom": 787,
      "ep": 788,
      "ks": 789,
      "act": 790,
      "ang": 791,
      "cus": 792,
      "comp": 793,
      "ans": 794,
      "ces": 795,
      "ud": 796,
      "ough": 797,
      "ign": 798,
      "ich": 799,
      "ta": 800,
      "ous": 801,
      "ph": 802,
      "bo": 803,
      "art": 804,
      "gy": 805,
      "dis": 806,
      "ase": 807,
      "ev": 808,
      "time": 809,
      "other": 810,
      "way": 811,
      "ass": 812,
      "**": 813,
      "ack": 814,
      "ser": 815,
      "ind": 816,
      "comm": 817,
      "ener": 818,
      "lear": 819,
      "sy": 820,
      "als": 821,
      "ations": 822,
      "over": 823,
      "vid": 824,
      "which": 825,
      "inter": 826,
      "ful": 827,
      "ong": 828,
      "has": 829,
      "cont": 830,
      "they": 831,
      "new": 832,
      "ction": 833,
      "ace": 834,
      "ning": 835,
      "el": 836,
      "own": 837,
      "ive": 838,
      "spe": 839,
      "br": 840,
      "also": 841,
      "pres": 842,
      "ated": 843,
      "ty": 844,
      "ound": 845,
      "It": 846,
      "int": 847,
      "ile": 848,
      "--": 849,
      "fo": 850,
      "des": 851,
      "ble": 852,
      "this": 853,
      "not": 854,
      "incl": 855,
      "ves": 856,
      "ties": 857,
      "ical": 858,
      "ary": 859,
      "work": 860,
      "ents": 861,
      "cur": 862,
      "do": 863,
      "them": 864,
      "ice": 865,
      "ber": 866,
      "produ": 867,
      "her": 868,
      "dif": 869,
      "col": 870,
      "ating": 871,
      "num": 872,
      "used": 873,
      "tw": 874,
      "au": 875,
      "ame": 876,
      "ite": 877,
      "stem": 878,
      "but": 879,
      "ater": 880,
      "custom": 881,
      "ard": 882,
      "will": 883,
      "ust": 884,
      "cial": 885,
      "ue": 886,
      "val": 887,
      "ility": 888,
      "rough": 889,
      "eng": 890,
      "system": 891,
      "bet": 892,
      "some": 893,
      "gre": 894,
      "ments": 895,
      "could": 896,
      "alth": 897,
      "ever": 898,
      "ors": 899,
      "ten": 900,
      "into": 901,
      "ast": 902,
      "par": 903,
      "inform": 904,
      "like": 905,
      "make": 906,
      "del": 907,
      "redu": 908,
      "need": 909,
      "if": 910,
      "ren": 911,
      "pers": 912,
      "ob": 913,
      "ven": 914,
      "ear": 915,
      "go": 916,
      "ari": 917,
      "man": 918,
      "ip": 919,
      "process": 920,
      "tech": 921,
      "row": 922,
      "ide": 923,
      "sp": 924,
      "med": 925,
      "``": 926,
      "through": 927,
      "ood": 928,
      "ange": 929,
      "ving": 930,
      "les": 931,
      "ased": 932,
      "get": 933,
      "would": 934,
      "mar": 935,
      "ele": 936,
      "kn": 937,
      "ures": 938,
      "differ": 939,
      "about": 940,
      "using": 941,
      "vide": 942,
      "impro": 943,
      "cor": 944,
      "ular": 945,
      "health": 946,
      "AI": 947,
      "day": 948,
      "velo": 949,
      "ca": 950,
      "ie": 951,
      "je": 952,
      "information": 953,
      "cr": 954,
      "bu": 955,
      "cts": 956,
      "peri": 957,
      "min": 958,
      "bl": 959,
      "ress": 960,
      "may": 961,
      "import": 962,
      "car": 963,
      "ory": 964,
      "incre": 965,
      "vir": 966,
      "stand": 967,
      "sure": 968,
      "xt": 969,
      "ates": 970,
      "ions": 971,
      "sum": 972,
      "af": 973,
      "ual": 974,
      "cy": 975,
      "ire": 976,
      "high": 977,
      "serv": 978,
      "inv": 979,
      "ctive": 980,
      "ish": 981,
      "ily": 982,
      "fici": 983,
      "fl": 984,
      "iness": 985,
      "ative": 986,
      "fun": 987,
      "cis": 988,
      "coun": 989,
      "person": 990,
      "velop": 991,
      "line": 992,
      "his": 993,
      "play": 994,
      "ms": 995,
      "where": 996,
      "ys": 997,
      "tur": 998,
      "fin": 999,
      "ree": 1000,
      "tim": 1001,
      "ild": 1002,
      "while": 1003,
      "vari": 1004,
      "vis": 1005,
      "ck": 1006,
      "ople": 1007,
      "cal": 1008,
      "there": 1009,
      "ential": 1010,
      "under": 1011,
      "thing": 1012,
      "pos": 1013,
      "energy": 1014,
      "fore": 1015,
      "model": 1016,
      "sul": 1017,
      "ability": 1018,
      "tri": 1019,
      "who": 1020,
      "sol": 1021,
      "aw": 1022,
      "effe": 1023,
      "includ": 1024,
      "trans": 1025,
      "set": 1026,
      "10": 1027,
      "bus": 1028,
      "rel": 1029,
      "people": 1030,
      "fr": 1031,
      "gan": 1032,
      "learning": 1033,
      "ices": 1034,
      "two": 1035,
      "provid": 1036,
      "each": 1037,
      "ia": 1038,
      "air": 1039,
      "Wh": 1040,
      "app": 1041,
      "eas": 1042,
      "most": 1043,
      "world": 1044,
      "pow": 1045,
      "ities": 1046,
      "when": 1047,
      "nolo": 1048,
      "develop": 1049,
      "plan": 1050,
      "speci": 1051,
      "arch": 1052,
      "ween": 1053,
      "sm": 1054,
      "experi": 1055,
      "reg": 1056,
      "back": 1057,
      "between": 1058,
      "war": 1059,
      "important": 1060,
      "stru": 1061,
      "provide": 1062,
      "come": 1063,
      "commun": 1064,
      "An": 1065,
      "she": 1066,
      "allow": 1067,
      "pon": 1068,
      "had": 1069,
      "sk": 1070,
      "ages": 1071,
      "ved": 1072,
      "life": 1073,
      "resul": 1074,
      "plo": 1075,
      "Here": 1076,
      "ature": 1077,
      "ew": 1078,
      "divid": 1079,
      "requ": 1080,
      "ced": 1081,
      "tas": 1082,
      "gor": 1083,
      "sto": 1084,
      "adv": 1085,
      "improve": 1086,
      "put": 1087,
      "making": 1088,
      "imp": 1089,
      "lead": 1090,
      "lar": 1091,
      "well": 1092,
      "bs": 1093,
      "angu": 1094,
      "irst": 1095,
      "One": 1096,
      "business": 1097,
      "gram": 1098,
      "how": 1099,
      "As": 1100,
      "St": 1101,
      "sign": 1102,
      "technolo": 1103,
      "fol": 1104,
      "customer": 1105,
      "design": 1106,
      "hum": 1107,
      "sel": 1108,
      "char": 1109,
      "ized": 1110,
      "ude": 1111,
      "ese": 1112,
      "water": 1113,
      "20": 1114,
      "ution": 1115,
      "number": 1116,
      "comple": 1117,
      "add": 1118,
      "sur": 1119,
      "ences": 1120,
      "exam": 1121,
      "cons": 1122,
      "En": 1123,
      "cer": 1124,
      "ak": 1125,
      "care": 1126,
      "ways": 1127,
      "On": 1128,
      "od": 1129,
      "gener": 1130,
      "ted": 1131,
      "ens": 1132,
      "power": 1133,
      "Ch": 1134,
      "being": 1135,
      "ze": 1136,
      "ick": 1137,
      "langu": 1138,
      "many": 1139,
      "ural": 1140,
      "cing": 1141,
      "ns": 1142,
      "mon": 1143,
      "cul": 1144,
      "acti": 1145,
      "tain": 1146,
      "these": 1147,
      "Re": 1148,
      "riend": 1149,
      "viron": 1150,
      "anal": 1151,
      "vers": 1152,
      "reduce": 1153,
      "different": 1154,
      "bre": 1155,
      "----": 1156,
      "marke": 1157,
      "sup": 1158,
      "gg": 1159,
      "Ad": 1160,
      "vel": 1161,
      "ings": 1162,
      "ris": 1163,
      "should": 1164,
      "long": 1165,
      "net": 1166,
      "dition": 1167,
      "ni": 1168,
      "than": 1169,
      "hand": 1170,
      "cent": 1171,
      "ness": 1172,
      "text": 1173,
      "dep": 1174,
      "dr": 1175,
      "He": 1176,
      "pol": 1177,
      "pot": 1178,
      "oth": 1179,
      "list": 1180,
      "perform": 1181,
      "create": 1182,
      "ss": 1183,
      "step": 1184,
      "ality": 1185,
      "che": 1186,
      "take": 1187,
      "gorith": 1188,
      "respon": 1189,
      "ific": 1190,
      "individ": 1191,
      "vironment": 1192,
      "ize": 1193,
      "my": 1194,
      "ources": 1195,
      "follow": 1196,
      "including": 1197,
      "cri": 1198,
      "top": 1199,
      "friend": 1200,
      "less": 1201,
      "led": 1202,
      "action": 1203,
      "How": 1204,
      "gi": 1205,
      "access": 1206,
      "understand": 1207,
      "grow": 1208,
      "algorith": 1209,
      "search": 1210,
      "program": 1211,
      "ake": 1212,
      "ication": 1213,
      "often": 1214,
      "present": 1215,
      "ons": 1216,
      "organ": 1217,
      "red": 1218,
      "mem": 1219,
      "pat": 1220,
      "first": 1221,
      "find": 1222,
      "jo": 1223,
      "cation": 1224,
      "old": 1225,
      "stud": 1226,
      "language": 1227,
      "environment": 1228,
      "posi": 1229,
      "edu": 1230,
      "equ": 1231,
      "light": 1232,
      "user": 1233,
      "been": 1234,
      "include": 1235,
      "bal": 1236,
      "social": 1237,
      "19": 1238,
      "based": 1239,
      "ins": 1240,
      "They": 1241,
      "self": 1242,
      "cour": 1243,
      "cted": 1244,
      "sing": 1245,
      "fy": 1246,
      "For": 1247,
      "then": 1248,
      "example": 1249,
      "sim": 1250,
      "ather": 1251,
      "cho": 1252,
      "```": 1253,
      "technology": 1254,
      "every": 1255,
      "invol": 1256,
      "appro": 1257,
      "effici": 1258,
      "cle": 1259,
      "specific": 1260,
      "pur": 1261,
      "read": 1262,
      "pop": 1263,
      "atures": 1264,
      "ject": 1265,
      "tre": 1266,
      "dic": 1267,
      "bers": 1268,
      "both": 1269,
      "arr": 1270,
      "ship": 1271,
      "personal": 1272,
      "ok": 1273,
      "change": 1274,
      "sof": 1275,
      "sever": 1276,
      "appl": 1277,
      "signific": 1278,
      "pu": 1279,
      "These": 1280,
      "ues": 1281,
      "effective": 1282,
      "vity": 1283,
      "cap": 1284,
      "ited": 1285,
      "00": 1286,
      "level": 1287,
      "tem": 1288,
      "sible": 1289,
      "experience": 1290,
      "chang": 1291,
      "small": 1292,
      "down": 1293,
      "boo": 1294,
      "function": 1295,
      "ail": 1296,
      "train": 1297,
      "human": 1298,
      "let": 1299,
      "view": 1300,
      "feel": 1301,
      "decis": 1302,
      "achine": 1303,
      "what": 1304,
      "significant": 1305,
      "ider": 1306,
      "Pro": 1307,
      "even": 1308,
      "were": 1309,
      "customers": 1310,
      "ho": 1311,
      "just": 1312,
      "ath": 1313,
      "systems": 1314,
      "turn": 1315,
      "fam": 1316,
      "only": 1317,
      "webs": 1318,
      "mer": 1319,
      "cost": 1320,
      "dy": 1321,
      "econ": 1322,
      ":**": 1323,
      "gu": 1324,
      "place": 1325,
      "fact": 1326,
      "nat": 1327,
      "uring": 1328,
      "ines": 1329,
      "fi": 1330,
      "known": 1331,
      "iss": 1332,
      "ization": 1333,
      "dri": 1334,
      "land": 1335,
      "wr": 1336,
      "large": 1337,
      "ques": 1338,
      "Con": 1339,
      "inte": 1340,
      "depend": 1341,
      "To": 1342,
      "tho": 1343,
      "ics": 1344,
      "key": 1345,
      "ming": 1346,
      "try": 1347,
      "sub": 1348,
      "identi": 1349,
      "ights": 1350,
      "impact": 1351,
      "pri": 1352,
      "cture": 1353,
      "made": 1354,
      "kes": 1355,
      "main": 1356,
      "proble": 1357,
      "see": 1358,
      "__": 1359,
      "imate": 1360,
      "year": 1361,
      "ploy": 1362,
      "ccess": 1363,
      "off": 1364,
      "Un": 1365,
      "company": 1366,
      "ety": 1367,
      "tal": 1368,
      "ry": 1369,
      "potential": 1370,
      "know": 1371,
      "If": 1372,
      "ables": 1373,
      "ases": 1374,
      "tional": 1375,
      "pt": 1376,
      "pass": 1377,
      "value": 1378,
      "tasks": 1379,
      "There": 1380,
      "several": 1381,
      "aging": 1382,
      "ency": 1383,
      "ner": 1384,
      "keep": 1385,
      "around": 1386,
      "great": 1387,
      "predic": 1388,
      "conne": 1389,
      "very": 1390,
      "aph": 1391,
      "With": 1392,
      "prote": 1393,
      "econom": 1394,
      "cause": 1395,
      "media": 1396,
      "content": 1397,
      "team": 1398,
      "typ": 1399,
      "By": 1400,
      "bon": 1401,
      "tware": 1402,
      "home": 1403,
      "learn": 1404,
      "beh": 1405,
      "However": 1406,
      "actions": 1407,
      "natural": 1408,
      "ben": 1409,
      "food": 1410,
      "Over": 1411,
      "ise": 1412,
      "cu": 1413,
      "sa": 1414,
      "analy": 1415,
      "contin": 1416,
      "clo": 1417,
      "ref": 1418,
      "issu": 1419,
      "vo": 1420,
      "inst": 1421,
      "De": 1422,
      "ills": 1423,
      "ctions": 1424,
      "ctr": 1425,
      "joy": 1426,
      "order": 1427,
      "adi": 1428,
      "ding": 1429,
      "rele": 1430,
      "que": 1431,
      "face": 1432,
      "term": 1433,
      "ulti": 1434,
      "compu": 1435,
      "accur": 1436,
      "ically": 1437,
      "ense": 1438,
      "cti": 1439,
      "website": 1440,
      "uals": 1441,
      "atch": 1442,
      ".\"": 1443,
      "ps": 1444,
      "product": 1445,
      "We": 1446,
      "sor": 1447,
      "tical": 1448,
      "prof": 1449,
      "Once": 1450,
      "computer": 1451,
      "ensure": 1452,
      "better": 1453,
      "result": 1454,
      "iting": 1455,
      "increase": 1456,
      "manage": 1457,
      "word": 1458,
      "ital": 1459,
      "given": 1460,
      "online": 1461,
      "gether": 1462,
      "support": 1463,
      "oper": 1464,
      "move": 1465,
      "sun": 1466,
      "software": 1467,
      "various": 1468,
      "ouse": 1469,
      "tool": 1470,
      "soci": 1471,
      "bi": 1472,
      "press": 1473,
      "machine": 1474,
      "Com": 1475,
      "focus": 1476,
      "ling": 1477,
      "users": 1478,
      "sent": 1479,
      "development": 1480,
      "good": 1481,
      "ats": 1482,
      "You": 1483,
      "table": 1484,
      "class": 1485,
      "She": 1486,
      "part": 1487,
      "build": 1488,
      "success": 1489,
      "blo": 1490,
      "dev": 1491,
      "tics": 1492,
      "anim": 1493,
      "uni": 1494,
      "phys": 1495,
      "multi": 1496,
      "possible": 1497,
      "sal": 1498,
      "ult": 1499,
      "needs": 1500,
      "Ex": 1501,
      "range": 1502,
      "clear": 1503,
      "consider": 1504,
      "chall": 1505,
      "features": 1506,
      "real": 1507,
      "service": 1508,
      "reach": 1509,
      "sive": 1510,
      "ield": 1511,
      "amoun": 1512,
      "promo": 1513,
      "uch": 1514,
      "iti": 1515,
      "together": 1516,
      "share": 1517,
      "ink": 1518,
      "quality": 1519,
      "publ": 1520,
      "rect": 1521,
      "ants": 1522,
      "So": 1523,
      "tail": 1524,
      "electr": 1525,
      "hy": 1526,
      "call": 1527,
      "acter": 1528,
      "fac": 1529,
      "til": 1530,
      "tle": 1531,
      "others": 1532,
      "curren": 1533,
      "ious": 1534,
      "stor": 1535,
      "individuals": 1536,
      "mail": 1537,
      "la": 1538,
      "efficient": 1539,
      "os": 1540,
      "right": 1541,
      "products": 1542,
      "require": 1543,
      "found": 1544,
      "indu": 1545,
      "uture": 1546,
      "enh": 1547,
      "ately": 1548,
      "state": 1549,
      "Overall": 1550,
      "providing": 1551,
      "ping": 1552,
      "acy": 1553,
      "involves": 1554,
      "numbers": 1555,
      "audi": 1556,
      "benef": 1557,
      "print": 1558,
      "words": 1559,
      "oc": 1560,
      "complex": 1561,
      "overn": 1562,
      "gen": 1563,
      "strong": 1564,
      "contro": 1565,
      "comes": 1566,
      "before": 1567,
      "avi": 1568,
      "asing": 1569,
      "maint": 1570,
      "ational": 1571,
      "reducing": 1572,
      "input": 1573,
      "side": 1574,
      "aving": 1575,
      "show": 1576,
      "ption": 1577,
      "identify": 1578,
      "resources": 1579,
      "bility": 1580,
      "employ": 1581,
      "portun": 1582,
      "har": 1583,
      "vent": 1584,
      "cog": 1585,
      "strate": 1586,
      "colle": 1587,
      "market": 1588,
      "future": 1589,
      "grou": 1590,
      "graph": 1591,
      "start": 1592,
      "offer": 1593,
      "performance": 1594,
      "changes": 1595,
      "head": 1596,
      "wide": 1597,
      "yth": 1598,
      "meas": 1599,
      "cell": 1600,
      "algorithm": 1601,
      "Be": 1602,
      "Tr": 1603,
      "essential": 1604,
      "common": 1605,
      "services": 1606,
      "code": 1607,
      "always": 1608,
      "name": 1609,
      "pare": 1610,
      "plement": 1611,
      "ilities": 1612,
      "temper": 1613,
      "family": 1614,
      "exp": 1615,
      "tar": 1616,
      "opportun": 1617,
      "businesses": 1618,
      "ger": 1619,
      "ars": 1620,
      "represent": 1621,
      "means": 1622,
      "uses": 1623,
      "type": 1624,
      "atis": 1625,
      "communication": 1626,
      "lay": 1627,
      "relation": 1628,
      "must": 1629,
      "ython": 1630,
      "field": 1631,
      "job": 1632,
      "body": 1633,
      "sci": 1634,
      "Al": 1635,
      "within": 1636,
      "steps": 1637,
      "best": 1638,
      "until": 1639,
      "ax": 1640,
      "nam": 1641,
      "cover": 1642,
      "assist": 1643,
      "sentence": 1644,
      "active": 1645,
      "growth": 1646,
      "rest": 1647,
      "behavi": 1648,
      "ier": 1649,
      "wards": 1650,
      "patter": 1651,
      "without": 1652,
      "helps": 1653,
      "ances": 1654,
      "12": 1655,
      "education": 1656,
      "vol": 1657,
      "item": 1658,
      "ash": 1659,
      "positive": 1660,
      "ade": 1661,
      "now": 1662,
      "llig": 1663,
      "dig": 1664,
      "glo": 1665,
      "happ": 1666,
      "mean": 1667,
      "ination": 1668,
      "ending": 1669,
      "mary": 1670,
      "cam": 1671,
      "ism": 1672,
      "physical": 1673,
      "nu": 1674,
      "return": 1675,
      "email": 1676,
      "character": 1677,
      "research": 1678,
      "aking": 1679,
      "log": 1680,
      "ient": 1681,
      "quick": 1682,
      "challeng": 1683,
      "overall": 1684,
      "relationship": 1685,
      "flu": 1686,
      "public": 1687,
      "allows": 1688,
      "skills": 1689,
      "anced": 1690,
      "students": 1691,
      "hist": 1692,
      "Addition": 1693,
      "run": 1694,
      "sit": 1695,
      "flow": 1696,
      "appe": 1697,
      "ream": 1698,
      "Use": 1699,
      "forest": 1700,
      "goals": 1701,
      "techni": 1702,
      "fect": 1703,
      "govern": 1704,
      "count": 1705,
      "clean": 1706,
      "lim": 1707,
      "usion": 1708,
      "stri": 1709,
      "curity": 1710,
      "audience": 1711,
      "regular": 1712,
      "values": 1713,
      "dist": 1714,
      "color": 1715,
      "safe": 1716,
      "transport": 1717,
      "works": 1718,
      "problem": 1719,
      "ications": 1720,
      "):": 1721,
      "love": 1722,
      "comb": 1723,
      "ually": 1724,
      "ancial": 1725,
      "gies": 1726,
      "summary": 1727,
      "ateri": 1728,
      "benefits": 1729,
      "Additionally": 1730,
      ").": 1731,
      "abor": 1732,
      "child": 1733,
      "When": 1734,
      "Some": 1735,
      "tit": 1736,
      "taking": 1737,
      "easy": 1738,
      "stain": 1739,
      "point": 1740,
      "mus": 1741,
      "ficial": 1742,
      "ists": 1743,
      "cip": 1744,
      "mind": 1745,
      "current": 1746,
      "Jo": 1747,
      "marketing": 1748,
      "structure": 1749,
      "date": 1750,
      "algorithms": 1751,
      "control": 1752,
      "fill": 1753,
      "ot": 1754,
      "creating": 1755,
      "Im": 1756,
      "city": 1757,
      "approach": 1758,
      "bot": 1759,
      "descri": 1760,
      "feed": 1761,
      "climate": 1762,
      "sequ": 1763,
      "ieve": 1764,
      "don": 1765,
      "provides": 1766,
      "pain": 1767,
      "wal": 1768,
      "atform": 1769,
      "sources": 1770,
      "again": 1771,
      "him": 1772,
      "times": 1773,
      "maintain": 1774,
      "calcul": 1775,
      "ides": 1776,
      "tru": 1777,
      "during": 1778,
      "game": 1779,
      "diffic": 1780,
      "risk": 1781,
      "icate": 1782,
      "store": 1783,
      "materi": 1784,
      "att": 1785,
      "Ar": 1786,
      "addition": 1787,
      "consum": 1788,
      "popular": 1789,
      "iter": 1790,
      "individual": 1791,
      "though": 1792,
      "room": 1793,
      "vities": 1794,
      "ulation": 1795,
      "ore": 1796,
      "atter": 1797,
      "leading": 1798,
      "necess": 1799,
      "--------": 1800,
      "working": 1801,
      "comput": 1802,
      "ech": 1803,
      "open": 1804,
      "free": 1805,
      "platform": 1806,
      "address": 1807,
      "mi": 1808,
      "ysis": 1809,
      "cting": 1810,
      "heart": 1811,
      "role": 1812,
      "contain": 1813,
      "healthy": 1814,
      "Pl": 1815,
      "levels": 1816,
      "decisions": 1817,
      "years": 1818,
      "financial": 1819,
      "unique": 1820,
      "elements": 1821,
      "trave": 1822,
      "understanding": 1823,
      "ross": 1824,
      "allowing": 1825,
      "avail": 1826,
      "want": 1827,
      "ource": 1828,
      "ban": 1829,
      "area": 1830,
      "activities": 1831,
      "enjoy": 1832,
      "recog": 1833,
      "itor": 1834,
      "ones": 1835,
      "security": 1836,
      "carbon": 1837,
      "lligence": 1838,
      "labor": 1839,
      "pan": 1840,
      "behavior": 1841,
      "stress": 1842,
      "target": 1843,
      "areas": 1844,
      "),": 1845,
      "sustain": 1846,
      "book": 1847,
      "ture": 1848,
      "ush": 1849,
      "following": 1850,
      "tern": 1851,
      "patterns": 1852,
      "training": 1853,
      "same": 1854,
      "stay": 1855,
      "space": 1856,
      "employe": 1857,
      "resh": 1858,
      "oose": 1859,
      "ible": 1860,
      "hard": 1861,
      "ession": 1862,
      "tes": 1863,
      "foo": 1864,
      "fur": 1865,
      "amount": 1866,
      "pect": 1867,
      "heat": 1868,
      "partic": 1869,
      "global": 1870,
      "case": 1871,
      "ward": 1872,
      "implement": 1873,
      "prim": 1874,
      "Em": 1875,
      "15": 1876,
      "mess": 1877,
      "friends": 1878,
      "</": 1879,
      "gl": 1880,
      "certain": 1881,
      "those": 1882,
      "ark": 1883,
      "tribu": 1884,
      "poll": 1885,
      "ints": 1886,
      "another": 1887,
      "termin": 1888,
      "oney": 1889,
      "izing": 1890,
      "cise": 1891,
      "pread": 1892,
      "proper": 1893,
      "after": 1894,
      "prevent": 1895,
      "ort": 1896,
      "deep": 1897,
      "sti": 1898,
      "gar": 1899,
      "dom": 1900,
      "necessary": 1901,
      "ground": 1902,
      "And": 1903,
      "fil": 1904,
      "ey": 1905,
      "decision": 1906,
      "array": 1907,
      "towards": 1908,
      "mag": 1909,
      "United": 1910,
      "sugg": 1911,
      "ses": 1912,
      "far": 1913,
      "ox": 1914,
      "simple": 1915,
      "become": 1916,
      "issions": 1917,
      "something": 1918,
      "arth": 1919,
      "assi": 1920,
      "expl": 1921,
      "18": 1922,
      "emo": 1923,
      "aves": 1924,
      "pie": 1925,
      "cup": 1926,
      "ples": 1927,
      "achieve": 1928,
      "ati": 1929,
      "fully": 1930,
      "compan": 1931,
      "economic": 1932,
      "zing": 1933,
      "waste": 1934,
      "engage": 1935,
      "aster": 1936,
      "transportation": 1937,
      "wind": 1938,
      "express": 1939,
      "ledge": 1940,
      "ering": 1941,
      "next": 1942,
      "night": 1943,
      "tradi": 1944,
      "ead": 1945,
      "event": 1946,
      "techniques": 1947,
      "ra": 1948,
      "prac": 1949,
      "healthcare": 1950,
      "sense": 1951,
      "never": 1952,
      "oking": 1953,
      "pa": 1954,
      "jects": 1955,
      "issues": 1956,
      "particular": 1957,
      "vant": 1958,
      "phone": 1959,
      "mal": 1960,
      "pose": 1961,
      "utes": 1962,
      "verse": 1963,
      "string": 1964,
      "analysis": 1965,
      "management": 1966,
      "bas": 1967,
      "explo": 1968,
      "tools": 1969,
      "sle": 1970,
      "**:": 1971,
      "fru": 1972,
      "because": 1973,
      "ped": 1974,
      "invest": 1975,
      "mis": 1976,
      "network": 1977,
      "results": 1978,
      "pay": 1979,
      "def": 1980,
      "fort": 1981,
      "events": 1982,
      "animals": 1983,
      "gin": 1984,
      "purch": 1985,
      "sty": 1986,
      "Earth": 1987,
      "deli": 1988,
      "position": 1989,
      "valu": 1990,
      "courage": 1991,
      "Pr": 1992,
      "web": 1993,
      "clusion": 1994,
      "processing": 1995,
      "temperature": 1996,
      "loc": 1997,
      "much": 1998,
      "prefer": 1999,
      "arti": 2000,
      "compe": 2001,
      "feedback": 2002,
      "might": 2003,
      "maj": 2004,
      "factors": 2005,
      "mos": 2006,
      "lex": 2007,
      "conf": 2008,
      "Wor": 2009,
      "due": 2010,
      "designed": 2011,
      "medi": 2012,
      "satis": 2013,
      "leg": 2014,
      "classi": 2015,
      "few": 2016,
      "hab": 2017,
      "tract": 2018,
      "Fin": 2019,
      "jour": 2020,
      "nature": 2021,
      "increasing": 2022,
      "Joh": 2023,
      "difficult": 2024,
      "complete": 2025,
      "typically": 2026,
      "devices": 2027,
      "aut": 2028,
      "ney": 2029,
      "What": 2030,
      "da": 2031,
      "sw": 2032,
      "items": 2033,
      "Ap": 2034,
      "tual": 2035,
      "aper": 2036,
      "story": 2037,
      "autom": 2038,
      "Pers": 2039,
      "determin": 2040,
      "metho": 2041,
      "reas": 2042,
      "ters": 2043,
      "reli": 2044,
      "gress": 2045,
      "termine": 2046,
      "profession": 2047,
      "meric": 2048,
      "une": 2049,
      "bir": 2050,
      "gative": 2051,
      "government": 2052,
      "11": 2053,
      "effectively": 2054,
      "ft": 2055,
      "aring": 2056,
      "beli": 2057,
      "emissions": 2058,
      "knowledge": 2059,
      "minutes": 2060,
      "oud": 2061,
      "location": 2062,
      "look": 2063,
      "ken": 2064,
      "ery": 2065,
      "optim": 2066,
      "ls": 2067,
      "abilities": 2068,
      "group": 2069,
      "lives": 2070,
      "usu": 2071,
      "tries": 2072,
      "ditions": 2073,
      "project": 2074,
      "test": 2075,
      "Americ": 2076,
      "challenges": 2077,
      "ah": 2078,
      "quickly": 2079,
      "warm": 2080,
      "post": 2081,
      "But": 2082,
      "enter": 2083,
      "track": 2084,
      "No": 2085,
      "points": 2086,
      "available": 2087,
      "lower": 2088,
      "phere": 2089,
      "rodu": 2090,
      "cording": 2091,
      "relevant": 2092,
      "aver": 2093,
      "opportunities": 2094,
      "Mo": 2095,
      "shop": 2096,
      "force": 2097,
      "concer": 2098,
      "friendly": 2099,
      "intelligence": 2100,
      "mil": 2101,
      "ired": 2102,
      "secon": 2103,
      "parti": 2104,
      "veget": 2105,
      "situ": 2106,
      "sele": 2107,
      "multiple": 2108,
      "sis": 2109,
      "Cl": 2110,
      "ket": 2111,
      "exper": 2112,
      "Person": 2113,
      "Des": 2114,
      "conditions": 2115,
      "thor": 2116,
      "detail": 2117,
      "sym": 2118,
      "rece": 2119,
      "ests": 2120,
      "includes": 2121,
      "brand": 2122,
      "dam": 2123,
      "ric": 2124,
      "models": 2125,
      "road": 2126,
      "ently": 2127,
      "uel": 2128,
      "member": 2129,
      "three": 2130,
      "activity": 2131,
      "den": 2132,
      "major": 2133,
      "analyze": 2134,
      "mand": 2135,
      "ince": 2136,
      "electric": 2137,
      "John": 2138,
      "At": 2139,
      "Make": 2140,
      "upon": 2141,
      "chool": 2142,
      "lling": 2143,
      "speed": 2144,
      "history": 2145,
      "oid": 2146,
      "weather": 2147,
      "Af": 2148,
      "stry": 2149,
      "meaning": 2150,
      "anti": 2151,
      "erous": 2152,
      "star": 2153,
      "variety": 2154,
      "makes": 2155,
      "powerful": 2156,
      "States": 2157,
      "ength": 2158,
      "fit": 2159,
      "og": 2160,
      "hold": 2161,
      "rain": 2162,
      "influ": 2163,
      "methods": 2164,
      "coming": 2165,
      "easier": 2166,
      "ctivity": 2167,
      "round": 2168,
      "images": 2169,
      "ict": 2170,
      "vert": 2171,
      "reng": 2172,
      "generate": 2173,
      "digital": 2174,
      "ank": 2175,
      "nov": 2176,
      "exer": 2177,
      "cru": 2178,
      "traditional": 2179,
      "ying": 2180,
      "source": 2181,
      "money": 2182,
      "non": 2183,
      "bring": 2184,
      "advant": 2185,
      "applications": 2186,
      "ished": 2187,
      "does": 2188,
      "negative": 2189,
      "avor": 2190,
      "fied": 2191,
      "efficiency": 2192,
      "remo": 2193,
      "commend": 2194,
      "engine": 2195,
      "Can": 2196,
      "tiv": 2197,
      "loss": 2198,
      "hour": 2199,
      "among": 2200,
      "mental": 2201,
      "population": 2202,
      "local": 2203,
      "Cre": 2204,
      "Res": 2205,
      "eval": 2206,
      "break": 2207,
      "ories": 2208,
      "size": 2209,
      "length": 2210,
      "renew": 2211,
      "practic": 2212,
      "bur": 2213,
      "fall": 2214,
      "atmos": 2215,
      "squ": 2216,
      "err": 2217,
      "dients": 2218,
      "experiences": 2219,
      "istic": 2220,
      "gas": 2221,
      "____": 2222,
      "came": 2223,
      "rate": 2224,
      "atic": 2225,
      "takes": 2226,
      "mom": 2227,
      "tax": 2228,
      "issue": 2229,
      "\",": 2230,
      "visual": 2231,
      "companies": 2232,
      "options": 2233,
      "increased": 2234,
      "youn": 2235,
      "still": 2236,
      "internet": 2237,
      "usually": 2238,
      "progress": 2239,
      "law": 2240,
      "conce": 2241,
      "spread": 2242,
      "instru": 2243,
      "adap": 2244,
      "sc": 2245,
      "recommend": 2246,
      "ont": 2247,
      "setting": 2248,
      "conclusion": 2249,
      "industry": 2250,
      "tree": 2251,
      "ord": 2252,
      "page": 2253,
      "ata": 2254,
      "countries": 2255,
      "sky": 2256,
      "image": 2257,
      "children": 2258,
      "After": 2259,
      "element": 2260,
      "materials": 2261,
      "Col": 2262,
      "away": 2263,
      "lying": 2264,
      "sustainable": 2265,
      "path": 2266,
      "live": 2267,
      "utions": 2268,
      "ibility": 2269,
      "ires": 2270,
      "cate": 2271,
      "pollution": 2272,
      "streng": 2273,
      "total": 2274,
      "problems": 2275,
      "minim": 2276,
      "avig": 2277,
      "likely": 2278,
      "ator": 2279,
      "species": 2280,
      "colors": 2281,
      "iev": 2282,
      "ug": 2283,
      "Br": 2284,
      "cycl": 2285,
      "check": 2286,
      "ded": 2287,
      "costs": 2288,
      "evol": 2289,
      "pho": 2290,
      "New": 2291,
      "tra": 2292,
      "Fr": 2293,
      "Co": 2294,
      "difference": 2295,
      "employees": 2296,
      "defin": 2297,
      "goal": 2298,
      "types": 2299,
      "ied": 2300,
      "things": 2301,
      "ideas": 2302,
      "medical": 2303,
      "relationships": 2304,
      "mee": 2305,
      "journey": 2306,
      "ial": 2307,
      "determine": 2308,
      "demand": 2309,
      "house": 2310,
      "tribut": 2311,
      "advent": 2312,
      "aged": 2313,
      "smart": 2314,
      "polic": 2315,
      "called": 2316,
      "travel": 2317,
      "against": 2318,
      "sl": 2319,
      "acts": 2320,
      "young": 2321,
      "bed": 2322,
      "protect": 2323,
      "sch": 2324,
      "movi": 2325,
      "display": 2326,
      "treat": 2327,
      "building": 2328,
      "price": 2329,
      "avoid": 2330,
      "ports": 2331,
      "paren": 2332,
      "ready": 2333,
      "sleep": 2334,
      "living": 2335,
      "renewable": 2336,
      "task": 2337,
      "second": 2338,
      "Ph": 2339,
      "produce": 2340,
      "dro": 2341,
      "terms": 2342,
      "board": 2343,
      "ident": 2344,
      "ounds": 2345,
      "angle": 2346,
      "photo": 2347,
      "plant": 2348,
      "refers": 2349,
      "higher": 2350,
      "17": 2351,
      "atmosphere": 2352,
      "Ano": 2353,
      "correct": 2354,
      "Another": 2355,
      "Data": 2356,
      "brow": 2357,
      "mic": 2358,
      "thod": 2359,
      "tow": 2360,
      "ext": 2361,
      "acters": 2362,
      "Python": 2363,
      "tention": 2364,
      "average": 2365,
      "prin": 2366,
      "ton": 2367,
      "accurate": 2368,
      "smo": 2369,
      "country": 2370,
      "easily": 2371,
      "community": 2372,
      "astic": 2373,
      "done": 2374,
      "achiev": 2375,
      "continu": 2376,
      "innov": 2377,
      "full": 2378,
      "onic": 2379,
      "characters": 2380,
      "Sh": 2381,
      "school": 2382,
      "paper": 2383,
      "lit": 2384,
      "ames": 2385,
      "actice": 2386,
      "max": 2387,
      "effects": 2388,
      "plants": 2389,
      "square": 2390,
      "mob": 2391,
      "here": 2392,
      "plac": 2393,
      "further": 2394,
      "compon": 2395,
      "hic": 2396,
      "itation": 2397,
      "evalu": 2398,
      "interest": 2399,
      "object": 2400,
      "fuel": 2401,
      "trees": 2402,
      "14": 2403,
      "fast": 2404,
      "eco": 2405,
      "itch": 2406,
      "processes": 2407,
      "unch": 2408,
      "cook": 2409,
      "wee": 2410,
      "green": 2411,
      "16": 2412,
      "chan": 2413,
      "method": 2414,
      "oes": 2415,
      "compl": 2416,
      "eep": 2417,
      "tren": 2418,
      "associ": 2419,
      "Take": 2420,
      "aim": 2421,
      "load": 2422,
      "Pre": 2423,
      "last": 2424,
      "ball": 2425,
      "navig": 2426,
      "While": 2427,
      "along": 2428,
      "auti": 2429,
      "society": 2430,
      "acks": 2431,
      "oil": 2432,
      "collabor": 2433,
      "special": 2434,
      "nutri": 2435,
      "fresh": 2436,
      "improving": 2437,
      "scal": 2438,
      "idence": 2439,
      "sales": 2440,
      "teach": 2441,
      "versity": 2442,
      "30": 2443,
      "50": 2444,
      "purpose": 2445,
      "offers": 2446,
      ",\"": 2447,
      "dish": 2448,
      "ilar": 2449,
      "production": 2450,
      "equation": 2451,
      "dete": 2452,
      "corpor": 2453,
      "cure": 2454,
      "ked": 2455,
      "virtual": 2456,
      "ene": 2457,
      "short": 2458,
      "needed": 2459,
      "sco": 2460,
      "adjust": 2461,
      "measures": 2462,
      "give": 2463,
      "across": 2464,
      "perfect": 2465,
      "vary": 2466,
      "dec": 2467,
      "consist": 2468,
      "ape": 2469,
      "having": 2470,
      "depending": 2471,
      "review": 2472,
      "hether": 2473,
      "account": 2474,
      "month": 2475,
      "cir": 2476,
      "lin": 2477,
      "programs": 2478,
      "professional": 2479,
      "ards": 2480,
      "ime": 2481,
      "someone": 2482,
      "ctor": 2483,
      "communicate": 2484,
      "bar": 2485,
      "idea": 2486,
      "icious": 2487,
      "solution": 2488,
      "python": 2489,
      "direct": 2490,
      "monitor": 2491,
      "economy": 2492,
      "crucial": 2493,
      "egg": 2494,
      "mor": 2495,
      "tili": 2496,
      "vehic": 2497,
      "presents": 2498,
      "writing": 2499,
      "ove": 2500,
      "conven": 2501,
      "vision": 2502,
      "diet": 2503,
      "ease": 2504,
      "contribu": 2505,
      "industri": 2506,
      "music": 2507,
      "exc": 2508,
      "discus": 2509,
      "members": 2510,
      "save": 2511,
      "differences": 2512,
      "rise": 2513,
      "trained": 2514,
      "Ro": 2515,
      "cas": 2516,
      "vill": 2517,
      "recor": 2518,
      "output": 2519,
      "statement": 2520,
      "regul": 2521,
      "gather": 2522,
      "promote": 2523,
      "mobile": 2524,
      "won": 2525,
      "left": 2526,
      "eth": 2527,
      "miss": 2528,
      "aur": 2529,
      "initi": 2530,
      "reat": 2531,
      "author": 2532,
      "harm": 2533,
      "lines": 2534,
      "chain": 2535,
      "personalized": 2536,
      "men": 2537,
      "const": 2538,
      "serve": 2539,
      "writ": 2540,
      "too": 2541,
      "datab": 2542,
      "ane": 2543,
      "appropri": 2544,
      "engaging": 2545,
      "affic": 2546,
      "Cus": 2547,
      "considered": 2548,
      "rup": 2549,
      "Custom": 2550,
      "Su": 2551,
      "updat": 2552,
      "enhouse": 2553,
      "strength": 2554,
      "gest": 2555,
      "rich": 2556,
      "docu": 2557,
      "Your": 2558,
      "planet": 2559,
      "nition": 2560,
      "met": 2561,
      "pack": 2562,
      "Set": 2563,
      "ensive": 2564,
      "izations": 2565,
      "successful": 2566,
      "layer": 2567,
      "ising": 2568,
      "practices": 2569,
      "blue": 2570,
      "accuracy": 2571,
      "sound": 2572,
      "inc": 2573,
      "GP": 2574,
      "frequ": 2575,
      "true": 2576,
      "lif": 2577,
      "cut": 2578,
      "remain": 2579,
      "hours": 2580,
      "brea": 2581,
      "ingre": 2582,
      "\".": 2583,
      "cks": 2584,
      "phr": 2585,
      "artic": 2586,
      "bots": 2587,
      "Add": 2588,
      "equal": 2589,
      "cool": 2590,
      "Keep": 2591,
      "traffic": 2592,
      "compare": 2593,
      "Cont": 2594,
      "daily": 2595,
      "Se": 2596,
      "gle": 2597,
      "looking": 2598,
      "programming": 2599,
      "measure": 2600,
      "hip": 2601,
      "past": 2602,
      "decre": 2603,
      "abl": 2604,
      "importance": 2605,
      "integr": 2606,
      "explore": 2607,
      "fication": 2608,
      "auty": 2609,
      "moder": 2610,
      "responsi": 2611,
      "everyone": 2612,
      "flo": 2613,
      "foot": 2614,
      "going": 2615,
      "hope": 2616,
      "occur": 2617,
      "25": 2618,
      "sen": 2619,
      "continue": 2620,
      "timately": 2621,
      "draw": 2622,
      "named": 2623,
      "ian": 2624,
      "storage": 2625,
      "feeling": 2626,
      "scre": 2627,
      "feature": 2628,
      "advanced": 2629,
      "Li": 2630,
      "news": 2631,
      "variable": 2632,
      "US": 2633,
      "artificial": 2634,
      "days": 2635,
      "greenhouse": 2636,
      "Finally": 2637,
      "ought": 2638,
      "watch": 2639,
      "paign": 2640,
      "mill": 2641,
      "today": 2642,
      "oods": 2643,
      "particularly": 2644,
      "cry": 2645,
      "cat": 2646,
      "predictions": 2647,
      "meet": 2648,
      "style": 2649,
      "First": 2650,
      "ountain": 2651,
      "Gr": 2652,
      "motiv": 2653,
      "constant": 2654,
      "cles": 2655,
      "safety": 2656,
      "yal": 2657,
      "greater": 2658,
      "everything": 2659,
      "Or": 2660,
      "trac": 2661,
      "questions": 2662,
      "bit": 2663,
      "interact": 2664,
      "introdu": 2665,
      "message": 2666,
      "ware": 2667,
      "21": 2668,
      "valuable": 2669,
      "dream": 2670,
      "numerous": 2671,
      "beauty": 2672,
      "weight": 2673,
      "associated": 2674,
      "bud": 2675,
      "humans": 2676,
      "application": 2677,
      "ute": 2678,
      "organization": 2679,
      "article": 2680,
      "productivity": 2681,
      "thin": 2682,
      "secure": 2683,
      "Ac": 2684,
      "imm": 2685,
      "provided": 2686,
      "requires": 2687,
      "significantly": 2688,
      "centr": 2689,
      "bright": 2690,
      "soft": 2691,
      "aling": 2692,
      "ously": 2693,
      "enses": 2694,
      "refer": 2695,
      "cean": 2696,
      "patient": 2697,
      "dia": 2698,
      "habit": 2699,
      "Dis": 2700,
      "shopping": 2701,
      "rout": 2702,
      "single": 2703,
      "ience": 2704,
      "seem": 2705,
      "platforms": 2706,
      "preferences": 2707,
      "gain": 2708,
      "augh": 2709,
      "kind": 2710,
      "attention": 2711,
      "responsible": 2712,
      "priv": 2713,
      "Inter": 2714,
      "ingredients": 2715,
      "13": 2716,
      "related": 2717,
      "additional": 2718,
      "speech": 2719,
      "device": 2720,
      "strategies": 2721,
      "moment": 2722,
      "flex": 2723,
      "ges": 2724,
      "study": 2725,
      "science": 2726,
      "competi": 2727,
      "pected": 2728,
      "ended": 2729,
      "campaign": 2730,
      "From": 2731,
      "thesis": 2732,
      "forms": 2733,
      "balance": 2734,
      "written": 2735,
      "degre": 2736,
      "sets": 2737,
      "begin": 2738,
      "mix": 2739,
      "hol": 2740,
      "seen": 2741,
      "appropriate": 2742,
      "base": 2743,
      "did": 2744,
      "repe": 2745,
      "aware": 2746,
      "wild": 2747,
      "yourself": 2748,
      "solve": 2749,
      "lands": 2750,
      "choose": 2751,
      "ula": 2752,
      "ender": 2753,
      "big": 2754,
      "books": 2755,
      "nor": 2756,
      "recognition": 2757,
      "enough": 2758,
      "agon": 2759,
      "touch": 2760,
      "und": 2761,
      "filled": 2762,
      "hi": 2763,
      "chat": 2764,
      "exercise": 2765,
      "ening": 2766,
      "acce": 2767,
      "lived": 2768,
      "enhance": 2769,
      "visit": 2770,
      "concerns": 2771,
      "earning": 2772,
      "vegetables": 2773,
      "syn": 2774,
      "little": 2775,
      "ply": 2776,
      "income": 2777,
      "beauti": 2778,
      "cycling": 2779,
      "=\"": 2780,
      "technologies": 2781,
      "strategy": 2782,
      "Op": 2783,
      "super": 2784,
      "Many": 2785,
      "once": 2786,
      "orig": 2787,
      "helping": 2788,
      "dog": 2789,
      "suring": 2790,
      "resol": 2791,
      "volution": 2792,
      "turns": 2793,
      "dest": 2794,
      "grad": 2795,
      "desired": 2796,
      "recogn": 2797,
      "forward": 2798,
      "contr": 2799,
      "stock": 2800,
      "shape": 2801,
      "',": 2802,
      "primary": 2803,
      "sides": 2804,
      "solar": 2805,
      "advance": 2806,
      "center": 2807,
      "above": 2808,
      "particip": 2809,
      "prior": 2810,
      "final": 2811,
      "explor": 2812,
      "discover": 2813,
      "Inst": 2814,
      "intern": 2815,
      "stream": 2816,
      "white": 2817,
      "note": 2818,
      "ned": 2819,
      "bow": 2820,
      "convers": 2821,
      "trust": 2822,
      "vey": 2823,
      "ches": 2824,
      "Create": 2825,
      "zz": 2826,
      "amounts": 2827,
      "commonly": 2828,
      "radi": 2829,
      "argu": 2830,
      "player": 2831,
      "meeting": 2832,
      "slow": 2833,
      "culture": 2834,
      "lt": 2835,
      "pts": 2836,
      "100": 2837,
      "American": 2838,
      "faction": 2839,
      "developing": 2840,
      "course": 2841,
      "restaur": 2842,
      "refle": 2843,
      "situation": 2844,
      "cars": 2845,
      "sequences": 2846,
      "acc": 2847,
      "drive": 2848,
      "Reg": 2849,
      "swe": 2850,
      "emer": 2851,
      "solutions": 2852,
      "bor": 2853,
      "solving": 2854,
      "animal": 2855,
      "pite": 2856,
      "relax": 2857,
      "subject": 2858,
      "park": 2859,
      "pressure": 2860,
      "zed": 2861,
      "ules": 2862,
      "option": 2863,
      "pep": 2864,
      "choice": 2865,
      "voice": 2866,
      "opportunity": 2867,
      "connected": 2868,
      "bro": 2869,
      "bol": 2870,
      "sav": 2871,
      "according": 2872,
      "Mar": 2873,
      "transform": 2874,
      "environmental": 2875,
      "labe": 2876,
      "dire": 2877,
      "iment": 2878,
      "objects": 2879,
      "causing": 2880,
      "000": 2881,
      "distance": 2882,
      "sorry": 2883,
      "Start": 2884,
      "Po": 2885,
      "ites": 2886,
      "Is": 2887,
      "whether": 2888,
      "answ": 2889,
      "Ser": 2890,
      "Man": 2891,
      "dies": 2892,
      "butter": 2893,
      "insp": 2894,
      "establ": 2895,
      "student": 2896,
      "satisfaction": 2897,
      "Redu": 2898,
      "posed": 2899,
      "larger": 2900,
      "beautiful": 2901,
      "trends": 2902,
      "ining": 2903,
      "mid": 2904,
      "outs": 2905,
      "aries": 2906,
      "sea": 2907,
      "loop": 2908,
      "driving": 2909,
      "bio": 2910,
      "ht": 2911,
      "World": 2912,
      "ancing": 2913,
      "tural": 2914,
      "card": 2915,
      "ends": 2916,
      "response": 2917,
      "involve": 2918,
      "hor": 2919,
      "loyal": 2920,
      "Social": 2921,
      "began": 2922,
      "similar": 2923,
      "changing": 2924,
      "why": 2925,
      "buil": 2926,
      "highly": 2927,
      "tables": 2928,
      "insights": 2929,
      "Cons": 2930,
      "Machine": 2931,
      "adapt": 2932,
      "movie": 2933,
      "four": 2934,
      "Che": 2935,
      "fair": 2936,
      "match": 2937,
      "verb": 2938,
      "outcomes": 2939,
      "ru": 2940,
      "whole": 2941,
      "informed": 2942,
      "equip": 2943,
      "ging": 2944,
      "basic": 2945,
      "poli": 2946,
      "follows": 2947,
      "leaves": 2948,
      "surface": 2949,
      "hot": 2950,
      "groups": 2951,
      "Le": 2952,
      "`.": 2953,
      "poon": 2954,
      "sequence": 2955,
      "akes": 2956,
      "logical": 2957,
      "town": 2958,
      "database": 2959,
      "wom": 2960,
      "Name": 2961,
      "predict": 2962,
      "computers": 2963,
      "practice": 2964,
      "operations": 2965,
      "purchase": 2966,
      "smooth": 2967,
      "outh": 2968,
      "resulting": 2969,
      "smaller": 2970,
      "Do": 2971,
      "War": 2972,
      "context": 2973,
      "reasons": 2974,
      "neural": 2975,
      "throughout": 2976,
      "seas": 2977,
      "shap": 2978,
      "surround": 2979,
      "origin": 2980,
      "isting": 2981,
      "memory": 2982,
      "eyes": 2983,
      "fire": 2984,
      "represents": 2985,
      "diag": 2986,
      "mountain": 2987,
      "ina": 2988,
      "ster": 2989,
      "adding": 2990,
      "Tech": 2991,
      "warming": 2992,
      "Ne": 2993,
      "bul": 2994,
      "peci": 2995,
      "painting": 2996,
      "budget": 2997,
      "dark": 2998,
      "matter": 2999,
      "ensuring": 3000,
      "cloud": 3001,
      "ined": 3002,
      "Choose": 3003,
      "Pe": 3004,
      "andom": 3005,
      "connect": 3006,
      "Both": 3007,
      "interpre": 3008,
      "speak": 3009,
      "gent": 3010,
      "aset": 3011,
      "organizations": 3012,
      "industries": 3013,
      "pair": 3014,
      "suit": 3015,
      "ither": 3016,
      "dataset": 3017,
      "sugar": 3018,
      "ury": 3019,
      "cycle": 3020,
      "wa": 3021,
      "pet": 3022,
      "assistant": 3023,
      "regularly": 3024,
      "Impro": 3025,
      "knew": 3026,
      "manner": 3027,
      "counts": 3028,
      "faster": 3029,
      "critical": 3030,
      "ctives": 3031,
      "diversity": 3032,
      "ries": 3033,
      "close": 3034,
      "lack": 3035,
      "cannot": 3036,
      "general": 3037,
      "approx": 3038,
      "deliver": 3039,
      "consequences": 3040,
      "thought": 3041,
      "Mon": 3042,
      "block": 3043,
      "eases": 3044,
      "vast": 3045,
      "independ": 3046,
      "forts": 3047,
      "indic": 3048,
      "networks": 3049,
      "mit": 3050,
      "rights": 3051,
      "condu": 3052,
      "improved": 3053,
      "modern": 3054,
      "Each": 3055,
      "rop": 3056,
      "created": 3057,
      "prepare": 3058,
      "rap": 3059,
      "affect": 3060,
      "longer": 3061,
      "discuss": 3062,
      "testing": 3063,
      "formula": 3064,
      "early": 3065,
      "caused": 3066,
      "selves": 3067,
      "advantages": 3068,
      "Sm": 3069,
      "prices": 3070,
      "components": 3071,
      "Au": 3072,
      "diseases": 3073,
      "period": 3074,
      "topic": 3075,
      "inary": 3076,
      "tructure": 3077,
      "lat": 3078,
      "valid": 3079,
      "black": 3080,
      "limited": 3081,
      "ishing": 3082,
      "oxide": 3083,
      "plastic": 3084,
      "esty": 3085,
      "preci": 3086,
      "win": 3087,
      "ership": 3088,
      "piece": 3089,
      "creative": 3090,
      "GPT": 3091,
      "exe": 3092,
      "ighting": 3093,
      "delicious": 3094,
      "recei": 3095,
      "contribute": 3096,
      "uro": 3097,
      "recent": 3098,
      "approximate": 3099,
      "lic": 3100,
      "pand": 3101,
      "favor": 3102,
      "required": 3103,
      "consumption": 3104,
      "Based": 3105,
      "categor": 3106,
      "()": 3107,
      "taken": 3108,
      "fields": 3109,
      "ama": 3110,
      "ativity": 3111,
      "adventure": 3112,
      "Customer": 3113,
      "computing": 3114,
      "princi": 3115,
      "prom": 3116,
      "expression": 3117,
      "My": 3118,
      "ird": 3119,
      "lap": 3120,
      "Develop": 3121,
      "jective": 3122,
      "edule": 3123,
      "fee": 3124,
      "emotions": 3125,
      "fruits": 3126,
      "say": 3127,
      "disease": 3128,
      "Let": 3129,
      "finding": 3130,
      "imag": 3131,
      "efforts": 3132,
      "walk": 3133,
      "phrase": 3134,
      "sess": 3135,
      "Incre": 3136,
      "200": 3137,
      "istics": 3138,
      "oogle": 3139,
      "entire": 3140,
      "II": 3141,
      "states": 3142,
      "cheese": 3143,
      "revolution": 3144,
      "imin": 3145,
      "instance": 3146,
      "promoting": 3147,
      "Learning": 3148,
      "infr": 3149,
      "think": 3150,
      "ali": 3151,
      "door": 3152,
      "bly": 3153,
      "Inte": 3154,
      "playing": 3155,
      "vehicles": 3156,
      "Of": 3157,
      "mat": 3158,
      "heav": 3159,
      "details": 3160,
      "effort": 3161,
      "ift": 3162,
      "near": 3163,
      "ided": 3164,
      "instead": 3165,
      "engagement": 3166,
      "Apple": 3167,
      "combination": 3168,
      "Ste": 3169,
      "cape": 3170,
      "ask": 3171,
      "else": 3172,
      "symbol": 3173,
      "CO": 3174,
      "fix": 3175,
      "ava": 3176,
      "lights": 3177,
      "please": 3178,
      "colum": 3179,
      "wall": 3180,
      "advert": 3181,
      "determined": 3182,
      "agr": 3183,
      "week": 3184,
      "diagno": 3185,
      "neur": 3186,
      "contact": 3187,
      "appear": 3188,
      "affe": 3189,
      "Eng": 3190,
      "widely": 3191,
      "concept": 3192,
      "Google": 3193,
      "aly": 3194,
      "games": 3195,
      "zes": 3196,
      "confl": 3197,
      "assign": 3198,
      "ager": 3199,
      "stop": 3200,
      "maintaining": 3201,
      "ID": 3202,
      "erce": 3203,
      "Car": 3204,
      "expect": 3205,
      "accurately": 3206,
      "built": 3207,
      "since": 3208,
      "incorpor": 3209,
      "encour": 3210,
      "cellent": 3211,
      "running": 3212,
      "asc": 3213,
      "languages": 3214,
      "organized": 3215,
      "cred": 3216,
      "ocean": 3217,
      "era": 3218,
      "cast": 3219,
      "investment": 3220,
      "bilities": 3221,
      "mach": 3222,
      "growing": 3223,
      "feelings": 3224,
      "approximately": 3225,
      "Using": 3226,
      "dang": 3227,
      "evolution": 3228,
      "##": 3229,
      "roll": 3230,
      "blood": 3231,
      "scient": 3232,
      "gard": 3233,
      "comfor": 3234,
      "Health": 3235,
      "eggs": 3236,
      "logo": 3237,
      "either": 3238,
      "pic": 3239,
      "remote": 3240,
      "village": 3241,
      "separ": 3242,
      "ssil": 3243,
      "expenses": 3244,
      "vil": 3245,
      "became": 3246,
      "thinking": 3247,
      "ler": 3248,
      "ands": 3249,
      "ids": 3250,
      "Sy": 3251,
      "analyzing": 3252,
      "pieces": 3253,
      "Str": 3254,
      "mission": 3255,
      "Out": 3256,
      "five": 3257,
      "height": 3258,
      "located": 3259,
      "scale": 3260,
      "Our": 3261,
      "atom": 3262,
      "pective": 3263,
      "opin": 3264,
      "impacts": 3265,
      "behind": 3266,
      "gene": 3267,
      "eve": 3268,
      "strugg": 3269,
      "astructure": 3270,
      "NA": 3271,
      "ental": 3272,
      "happy": 3273,
      "bran": 3274,
      "meal": 3275,
      "wel": 3276,
      "auce": 3277,
      "skill": 3278,
      "series": 3279,
      "maxim": 3280,
      "sweet": 3281,
      "onom": 3282,
      "enced": 3283,
      "eters": 3284,
      "24": 3285,
      "Jack": 3286,
      "anx": 3287,
      "offee": 3288,
      "veness": 3289,
      "instructions": 3290,
      "bag": 3291,
      "rather": 3292,
      "reed": 3293,
      "logy": 3294,
      "suggest": 3295,
      "ond": 3296,
      "aris": 3297,
      "stu": 3298,
      "variables": 3299,
      "largest": 3300,
      "contains": 3301,
      "rapid": 3302,
      "respect": 3303,
      "peace": 3304,
      "hear": 3305,
      "iring": 3306,
      "thoughts": 3307,
      "stre": 3308,
      "incredi": 3309,
      "archite": 3310,
      "sitive": 3311,
      "fuels": 3312,
      "routine": 3313,
      "ste": 3314,
      "format": 3315,
      "entertain": 3316,
      "batter": 3317,
      "ctors": 3318,
      "ook": 3319,
      "brain": 3320,
      "pepper": 3321,
      "tell": 3322,
      "phones": 3323,
      "triangle": 3324,
      "effect": 3325,
      "temperatures": 3326,
      "error": 3327,
      "Regular": 3328,
      "estim": 3329,
      "question": 3330,
      "install": 3331,
      "felt": 3332,
      "sharing": 3333,
      "interface": 3334,
      "parts": 3335,
      "political": 3336,
      "exce": 3337,
      "interactive": 3338,
      "survi": 3339,
      "covery": 3340,
      "pace": 3341,
      "foods": 3342,
      "lot": 3343,
      "implementing": 3344,
      "schedule": 3345,
      "screen": 3346,
      "encourage": 3347,
      "decl": 3348,
      "party": 3349,
      "Lo": 3350,
      "tor": 3351,
      "enab": 3352,
      "dioxide": 3353,
      "emic": 3354,
      "players": 3355,
      "generally": 3356,
      "Trans": 3357,
      "dex": 3358,
      "cream": 3359,
      "risks": 3360,
      "infrastructure": 3361,
      "iety": 3362,
      "ufact": 3363,
      "usage": 3364,
      "Fe": 3365,
      "commit": 3366,
      "earch": 3367,
      "especi": 3368,
      "release": 3369,
      "calculate": 3370,
      "especially": 3371,
      "Ef": 3372,
      "fail": 3373,
      "diverse": 3374,
      "entiment": 3375,
      "fossil": 3376,
      "awareness": 3377,
      "mechan": 3378,
      "anything": 3379,
      "experiment": 3380,
      "treatment": 3381,
      "Tw": 3382,
      "password": 3383,
      "fig": 3384,
      "goods": 3385,
      "lost": 3386,
      "cient": 3387,
      "imply": 3388,
      "\":": 3389,
      "atoes": 3390,
      "moon": 3391,
      "previ": 3392,
      "interactions": 3393,
      "salt": 3394,
      "calculated": 3395,
      "gir": 3396,
      "condition": 3397,
      "Through": 3398,
      "Med": 3399,
      "Pres": 3400,
      "reason": 3401,
      "returns": 3402,
      "loved": 3403,
      "phas": 3404,
      "standing": 3405,
      "handle": 3406,
      "material": 3407,
      "rates": 3408,
      "utili": 3409,
      "soil": 3410,
      "challenging": 3411,
      "45": 3412,
      "Def": 3413,
      "arri": 3414,
      "omes": 3415,
      "constru": 3416,
      "ulate": 3417,
      "entially": 3418,
      "getting": 3419,
      "video": 3420,
      "policy": 3421,
      "ring": 3422,
      "pression": 3423,
      "classification": 3424,
      "restaurant": 3425,
      "Bu": 3426,
      "`,": 3427,
      "appreci": 3428,
      "navigate": 3429,
      "central": 3430,
      "Sure": 3431,
      "remove": 3432,
      "skin": 3433,
      "reliable": 3434,
      "Personal": 3435,
      "tiz": 3436,
      "virus": 3437,
      "eye": 3438,
      "delivery": 3439,
      "document": 3440,
      "tran": 3441,
      "cities": 3442,
      "novel": 3443,
      "starting": 3444,
      "comfortable": 3445,
      "Euro": 3446,
      "ony": 3447,
      "enge": 3448,
      "electricity": 3449,
      "ju": 3450,
      "Thank": 3451,
      "front": 3452,
      "mass": 3453,
      "porting": 3454,
      "60": 3455,
      "esting": 3456,
      "emotional": 3457,
      "(\"": 3458,
      "inner": 3459,
      "develo": 3460,
      "letter": 3461,
      "loyalty": 3462,
      "Sup": 3463,
      "dle": 3464,
      "ays": 3465,
      "evidence": 3466,
      "pandemic": 3467,
      "Don": 3468,
      "Ele": 3469,
      "ows": 3470,
      "layers": 3471,
      "spr": 3472,
      "India": 3473,
      "spending": 3474,
      "hood": 3475,
      "random": 3476,
      "taste": 3477,
      "Despite": 3478,
      "//": 3479,
      "cies": 3480,
      "sn": 3481,
      "started": 3482,
      "cells": 3483,
      "histor": 3484,
      "keeping": 3485,
      "Her": 3486,
      "Sal": 3487,
      "alse": 3488,
      "ify": 3489,
      "servation": 3490,
      "limit": 3491,
      "ets": 3492,
      "ana": 3493,
      "assess": 3494,
      "graphics": 3495,
      "believe": 3496,
      "went": 3497,
      "Me": 3498,
      "py": 3499,
      "ran": 3500,
      "famous": 3501,
      "Its": 3502,
      "noun": 3503,
      "least": 3504,
      "cipe": 3505,
      "pir": 3506,
      "atory": 3507,
      "demo": 3508,
      "icken": 3509,
      "machines": 3510,
      "SE": 3511,
      "emphas": 3512,
      "anxiety": 3513,
      "aud": 3514,
      "sens": 3515,
      "powered": 3516,
      "aps": 3517,
      "counter": 3518,
      "ix": 3519,
      "nical": 3520,
      "excellent": 3521,
      "accessible": 3522,
      "link": 3523,
      "saw": 3524,
      "remember": 3525,
      "presence": 3526,
      "shared": 3527,
      "Java": 3528,
      "Sar": 3529,
      "ork": 3530,
      "trying": 3531,
      "latest": 3532,
      "planning": 3533,
      "Di": 3534,
      "cand": 3535,
      "convey": 3536,
      "That": 3537,
      "manufact": 3538,
      "dry": 3539,
      "pati": 3540,
      "connection": 3541,
      "rules": 3542,
      "developed": 3543,
      "zon": 3544,
      "nit": 3545,
      "inves": 3546,
      "breath": 3547,
      "box": 3548,
      "respond": 3549,
      "immedi": 3550,
      "earth": 3551,
      "breaks": 3552,
      "season": 3553,
      "==": 3554,
      "contribut": 3555,
      "themselves": 3556,
      "guide": 3557,
      "movement": 3558,
      "gold": 3559,
      "impl": 3560,
      "capable": 3561,
      "driven": 3562,
      "requirements": 3563,
      "ygen": 3564,
      "took": 3565,
      "videos": 3566,
      "happiness": 3567,
      "million": 3568,
      "baking": 3569,
      "coffee": 3570,
      "expand": 3571,
      "policies": 3572,
      "site": 3573,
      "vit": 3574,
      "operating": 3575,
      "hal": 3576,
      "lu": 3577,
      "unning": 3578,
      "cript": 3579,
      "ert": 3580,
      "already": 3581,
      "mathem": 3582,
      "sentiment": 3583,
      "causes": 3584,
      "transactions": 3585,
      "Dr": 3586,
      "statis": 3587,
      "interests": 3588,
      "brought": 3589,
      "frame": 3590,
      "stored": 3591,
      "title": 3592,
      "soph": 3593,
      "focused": 3594,
      "Phone": 3595,
      "ample": 3596,
      "managing": 3597,
      "explain": 3598,
      "receive": 3599,
      "ged": 3600,
      "wise": 3601,
      "characteristics": 3602,
      "----------------": 3603,
      "patients": 3604,
      "ny": 3605,
      "subs": 3606,
      "section": 3607,
      "agric": 3608,
      "fice": 3609,
      "kingdom": 3610,
      "dynam": 3611,
      "Europe": 3612,
      "cm": 3613,
      "conver": 3614,
      "comfort": 3615,
      "medium": 3616,
      "sand": 3617,
      "recycling": 3618,
      "shows": 3619,
      "))": 3620,
      "entific": 3621,
      "graphic": 3622,
      "High": 3623,
      "sauce": 3624,
      "buy": 3625,
      "ford": 3626,
      "advantage": 3627,
      "lifesty": 3628,
      "Hel": 3629,
      "stic": 3630,
      "Sol": 3631,
      "bes": 3632,
      "gases": 3633,
      "hun": 3634,
      "waves": 3635,
      "cooking": 3636,
      "supply": 3637,
      "Arti": 3638,
      "atives": 3639,
      "LE": 3640,
      "acef": 3641,
      "worth": 3642,
      "letters": 3643,
      "gate": 3644,
      "laptop": 3645,
      "During": 3646,
      "Get": 3647,
      "Ver": 3648,
      "cli": 3649,
      "catch": 3650,
      "ators": 3651,
      "server": 3652,
      "got": 3653,
      "cake": 3654,
      "laugh": 3655,
      "deb": 3656,
      "moving": 3657,
      "trip": 3658,
      "agers": 3659,
      "websites": 3660,
      "ulture": 3661,
      "Technolo": 3662,
      "chr": 3663,
      "beach": 3664,
      "feet": 3665,
      "fric": 3666,
      "career": 3667,
      "bill": 3668,
      "kness": 3669,
      "cultural": 3670,
      "contrast": 3671,
      "HT": 3672,
      "sou": 3673,
      "efficiently": 3674,
      "describe": 3675,
      "Ger": 3676,
      "Nor": 3677,
      "report": 3678,
      "challenge": 3679,
      "Qu": 3680,
      "ades": 3681,
      "background": 3682,
      "birds": 3683,
      "innovation": 3684,
      "decrease": 3685,
      "functions": 3686,
      "hands": 3687,
      "giving": 3688,
      "hypo": 3689,
      "greatly": 3690,
      "els": 3691,
      "rema": 3692,
      "lies": 3693,
      "serving": 3694,
      "rench": 3695,
      "errors": 3696,
      "aceful": 3697,
      "push": 3698,
      "factor": 3699,
      "defined": 3700,
      "collaboration": 3701,
      "degrees": 3702,
      "],": 3703,
      "ened": 3704,
      "idge": 3705,
      "citiz": 3706,
      "efore": 3707,
      "famil": 3708,
      "launch": 3709,
      "ethical": 3710,
      "Edu": 3711,
      "Go": 3712,
      "added": 3713,
      "wonder": 3714,
      "na": 3715,
      "az": 3716,
      "boost": 3717,
      "40": 3718,
      "ners": 3719,
      "oven": 3720,
      "enance": 3721,
      "cele": 3722,
      "shown": 3723,
      "Int": 3724,
      "reading": 3725,
      "privacy": 3726,
      "sion": 3727,
      "mel": 3728,
      "ultimately": 3729,
      "plays": 3730,
      "communities": 3731,
      "reaching": 3732,
      "fruit": 3733,
      "credit": 3734,
      "Ama": 3735,
      "lean": 3736,
      "absor": 3737,
      "distin": 3738,
      "outside": 3739,
      "query": 3740,
      "operation": 3741,
      "employee": 3742,
      "harmful": 3743,
      "All": 3744,
      "ML": 3745,
      "existing": 3746,
      "vibr": 3747,
      "played": 3748,
      "footprint": 3749,
      "Tom": 3750,
      "atically": 3751,
      "isms": 3752,
      "eds": 3753,
      "useful": 3754,
      "leave": 3755,
      "accompl": 3756,
      "milk": 3757,
      "initial": 3758,
      "pas": 3759,
      "becomes": 3760,
      "poses": 3761,
      "remains": 3762,
      "Are": 3763,
      "Per": 3764,
      "vised": 3765,
      "2021": 3766,
      "chem": 3767,
      "score": 3768,
      "reedom": 3769,
      "soon": 3770,
      "preh": 3771,
      "scientific": 3772,
      "Id": 3773,
      "song": 3774,
      "aces": 3775,
      "summer": 3776,
      "examples": 3777,
      "bottom": 3778,
      "Water": 3779,
      "edge": 3780,
      "asting": 3781,
      "teas": 3782,
      "damage": 3783,
      "projects": 3784,
      "jobs": 3785,
      "updates": 3786,
      "Artificial": 3787,
      "bread": 3788,
      "answer": 3789,
      "faces": 3790,
      "Dep": 3791,
      "Net": 3792,
      "mole": 3793,
      "extre": 3794,
      "puts": 3795,
      "fish": 3796,
      "nic": 3797,
      "alter": 3798,
      "stars": 3799,
      "libr": 3800,
      "reduced": 3801,
      "Yes": 3802,
      "passion": 3803,
      "________": 3804,
      "cross": 3805,
      "lighting": 3806,
      "mas": 3807,
      "za": 3808,
      "arily": 3809,
      "extract": 3810,
      "fundam": 3811,
      "Ve": 3812,
      "Plan": 3813,
      "lifestyle": 3814,
      "vention": 3815,
      "evaluate": 3816,
      "flexibility": 3817,
      "interpret": 3818,
      "favorite": 3819,
      "girl": 3820,
      "attract": 3821,
      "disrup": 3822,
      "venue": 3823,
      "spend": 3824,
      "regard": 3825,
      "maintenance": 3826,
      "Climate": 3827,
      "bowl": 3828,
      "celebr": 3829,
      "cum": 3830,
      "eat": 3831,
      "leaving": 3832,
      "itself": 3833,
      "stage": 3834,
      "fear": 3835,
      "finally": 3836,
      "\">": 3837,
      "tures": 3838,
      "lock": 3839,
      "wealth": 3840,
      "served": 3841,
      "Sarah": 3842,
      "Amazon": 3843,
      "Vir": 3844,
      "pects": 3845,
      "cold": 3846,
      "Therefore": 3847,
      "said": 3848,
      "King": 3849,
      "hon": 3850,
      "zer": 3851,
      "trade": 3852,
      "architecture": 3853,
      "Ul": 3854,
      "York": 3855,
      "tour": 3856,
      "capabilities": 3857,
      "entertainment": 3858,
      "spo": 3859,
      "index": 3860,
      "simpl": 3861,
      "structured": 3862,
      "walking": 3863,
      "recommendations": 3864,
      "ale": 3865,
      "China": 3866,
      "situations": 3867,
      "pen": 3868,
      "simply": 3869,
      "creativity": 3870,
      "flowers": 3871,
      "equipment": 3872,
      "ilo": 3873,
      "mood": 3874,
      "transl": 3875,
      "influence": 3876,
      "User": 3877,
      "sil": 3878,
      "ared": 3879,
      "identifying": 3880,
      "bust": 3881,
      "involved": 3882,
      "gentle": 3883,
      "NL": 3884,
      "theory": 3885,
      "region": 3886,
      "stories": 3887,
      "Identi": 3888,
      "tice": 3889,
      "ulations": 3890,
      "ression": 3891,
      "passed": 3892,
      "Mic": 3893,
      "calm": 3894,
      "izes": 3895,
      "itize": 3896,
      "offering": 3897,
      "emails": 3898,
      "advertising": 3899,
      "extreme": 3900,
      "third": 3901,
      "reality": 3902,
      "death": 3903,
      "leader": 3904,
      "continues": 3905,
      "Implement": 3906,
      "legal": 3907,
      "belief": 3908,
      "tone": 3909,
      "sorted": 3910,
      "classes": 3911,
      "hardware": 3912,
      "Avo": 3913,
      "bey": 3914,
      "grav": 3915,
      "doing": 3916,
      "mark": 3917,
      "workers": 3918,
      "carry": 3919,
      "increases": 3920,
      "generated": 3921,
      "changed": 3922,
      "concepts": 3923,
      "helpful": 3924,
      "technical": 3925,
      "possi": 3926,
      "oxygen": 3927,
      "Gre": 3928,
      "Pri": 3929,
      "ui": 3930,
      "cision": 3931,
      "carefully": 3932,
      "properly": 3933,
      "tracking": 3934,
      "Afric": 3935,
      "memories": 3936,
      "capital": 3937,
      "ctiveness": 3938,
      "nutrients": 3939,
      "responsibility": 3940,
      "Ple": 3941,
      "ensu": 3942,
      "demon": 3943,
      "distribu": 3944,
      "ternal": 3945,
      "woman": 3946,
      "mathemat": 3947,
      "eating": 3948,
      "wood": 3949,
      "atively": 3950,
      "Produ": 3951,
      "!\"": 3952,
      "ilit": 3953,
      "hydro": 3954,
      "record": 3955,
      "direction": 3956,
      "cases": 3957,
      "ff": 3958,
      "usive": 3959,
      "motion": 3960,
      "Char": 3961,
      "film": 3962,
      "channe": 3963,
      "thus": 3964,
      "tips": 3965,
      "depth": 3966,
      "appears": 3967,
      "advancements": 3968,
      "recipe": 3969,
      "belong": 3970,
      "Vis": 3971,
      "alone": 3972,
      "imal": 3973,
      "irm": 3974,
      "ctures": 3975,
      "oosing": 3976,
      "Encourage": 3977,
      "selection": 3978,
      "idents": 3979,
      "compared": 3980,
      "rot": 3981,
      "prob": 3982,
      "graphy": 3983,
      "sugges": 3984,
      "minimize": 3985,
      "decided": 3986,
      "expected": 3987,
      "flavor": 3988,
      "ensity": 3989,
      "achieved": 3990,
      "scientists": 3991,
      "French": 3992,
      "homes": 3993,
      "iet": 3994,
      "aspects": 3995,
      "preser": 3996,
      "effectiveness": 3997,
      "bird": 3998,
      "Sun": 3999,
      "bound": 4000,
      "apan": 4001,
      "pool": 4002,
      "choices": 4003,
      "views": 4004,
      "SS": 4005,
      "nitive": 4006,
      "capture": 4007,
      "Brit": 4008,
      "Please": 4009,
      "Japan": 4010,
      "pi": 4011,
      "sed": 4012,
      "spl": 4013,
      "tend": 4014,
      "plans": 4015,
      "jectives": 4016,
      "protection": 4017,
      "habits": 4018,
      "detect": 4019,
      "argument": 4020,
      "Technology": 4021,
      "90": 4022,
      "pages": 4023,
      "realized": 4024,
      "achieving": 4025,
      "Step": 4026,
      "Every": 4027,
      "liter": 4028,
      "mist": 4029,
      "enables": 4030,
      "ellow": 4031,
      "blog": 4032,
      "morning": 4033,
      "80": 4034,
      "Bl": 4035,
      "CT": 4036,
      "broad": 4037,
      "dress": 4038,
      "ergy": 4039,
      "Introdu": 4040,
      "Great": 4041,
      "Ob": 4042,
      "cking": 4043,
      "sounds": 4044,
      "collection": 4045,
      "savings": 4046,
      "grand": 4047,
      "continued": 4048,
      "developers": 4049,
      "vibrant": 4050,
      "ower": 4051,
      "pover": 4052,
      "transparen": 4053,
      "truly": 4054,
      "May": 4055,
      "mun": 4056,
      "onto": 4057,
      "ume": 4058,
      "antum": 4059,
      "enabling": 4060,
      "idden": 4061,
      "establish": 4062,
      "infe": 4063,
      "encing": 4064,
      "compreh": 4065,
      "tele": 4066,
      "linear": 4067,
      "places": 4068,
      "recognize": 4069,
      "75": 4070,
      "Lily": 4071,
      "tall": 4072,
      "ubl": 4073,
      "possess": 4074,
      "fitness": 4075,
      "gging": 4076,
      "scen": 4077,
      "sched": 4078,
      "Instead": 4079,
      "vital": 4080,
      "whel": 4081,
      "stunning": 4082,
      "param": 4083,
      "ecosystems": 4084,
      "lla": 4085,
      "consistent": 4086,
      "regulations": 4087,
      "According": 4088,
      "vac": 4089,
      "heard": 4090,
      "apple": 4091,
      "qual": 4092,
      "cyber": 4093,
      "NLP": 4094,
      "aid": 4095,
      "gment": 4096,
      "gency": 4097,
      "miti": 4098,
      "ato": 4099,
      "dead": 4100,
      "anges": 4101,
      "interaction": 4102,
      "craf": 4103,
      "century": 4104,
      "laws": 4105,
      "placed": 4106,
      "commerce": 4107,
      "competition": 4108,
      "wildlife": 4109,
      "aff": 4110,
      "convenient": 4111,
      "Improved": 4112,
      "forget": 4113,
      "gets": 4114,
      "urn": 4115,
      "anyone": 4116,
      "cards": 4117,
      "xture": 4118,
      "messages": 4119,
      "becoming": 4120,
      "button": 4121,
      "directly": 4122,
      "middle": 4123,
      "Check": 4124,
      "beyond": 4125,
      "standard": 4126,
      "garden": 4127,
      "poverty": 4128,
      "Max": 4129,
      "dim": 4130,
      "tractions": 4131,
      "spent": 4132,
      "leads": 4133,
      "Engl": 4134,
      "analytics": 4135,
      "vitam": 4136,
      "Pol": 4137,
      "yog": 4138,
      "enable": 4139,
      "sume": 4140,
      "metr": 4141,
      "processed": 4142,
      "English": 4143,
      "pul": 4144,
      "wid": 4145,
      "align": 4146,
      "poem": 4147,
      "clim": 4148,
      "creation": 4149,
      "fraud": 4150,
      "Remember": 4151,
      "educational": 4152,
      "previous": 4153,
      "Identify": 4154,
      "Hum": 4155,
      "io": 4156,
      "root": 4157,
      "formation": 4158,
      "afford": 4159,
      "Energy": 4160,
      "Design": 4161,
      "expectations": 4162,
      "ww": 4163,
      "ino": 4164,
      "reduces": 4165,
      "highest": 4166,
      "presentation": 4167,
      "host": 4168,
      "identity": 4169,
      "description": 4170,
      "Ultimately": 4171,
      "freedom": 4172,
      "ered": 4173,
      "icated": 4174,
      "chicken": 4175,
      "quanti": 4176,
      "cleaning": 4177,
      "sensitive": 4178,
      "bing": 4179,
      "overwhel": 4180,
      "spir": 4181,
      "improvement": 4182,
      "2020": 4183,
      "organize": 4184,
      "Just": 4185,
      "sem": 4186,
      "suppl": 4187,
      "expensive": 4188,
      "chemical": 4189,
      "22": 4190,
      "benefit": 4191,
      "mixture": 4192,
      "constantly": 4193,
      "AR": 4194,
      "sports": 4195,
      "secre": 4196,
      "generations": 4197,
      "balanced": 4198,
      "inside": 4199,
      "convert": 4200,
      "minis": 4201,
      "flour": 4202,
      "Increased": 4203,
      "genetic": 4204,
      "iPhone": 4205,
      "Commun": 4206,
      "exploring": 4207,
      "citizens": 4208,
      "ptom": 4209,
      "appli": 4210,
      "international": 4211,
      "original": 4212,
      "AM": 4213,
      "cats": 4214,
      "hes": 4215,
      "Stay": 4216,
      "rising": 4217,
      "civil": 4218,
      "core": 4219,
      "bled": 4220,
      "Online": 4221,
      "technique": 4222,
      "birth": 4223,
      "Research": 4224,
      "exist": 4225,
      "ried": 4226,
      "stores": 4227,
      "innovative": 4228,
      "incenti": 4229,
      "heavy": 4230,
      "revenue": 4231,
      "berries": 4232,
      "ub": 4233,
      "update": 4234,
      "manip": 4235,
      "ideal": 4236,
      "transfer": 4237,
      "determination": 4238,
      "miles": 4239,
      "brown": 4240,
      "Since": 4241,
      "extra": 4242,
      "compass": 4243,
      "apps": 4244,
      "charge": 4245,
      "write": 4246,
      "titution": 4247,
      "suggests": 4248,
      "shel": 4249,
      "perce": 4250,
      "coord": 4251,
      "bene": 4252,
      "payment": 4253,
      "32": 4254,
      "Revolution": 4255,
      "dou": 4256,
      "office": 4257,
      "omen": 4258,
      "choosing": 4259,
      "appoint": 4260,
      "followed": 4261,
      "cognitive": 4262,
      "historical": 4263,
      "completed": 4264,
      "prime": 4265,
      "months": 4266,
      "destination": 4267,
      "Gener": 4268,
      "Us": 4269,
      "theme": 4270,
      "meters": 4271,
      "protein": 4272,
      "France": 4273,
      "NN": 4274,
      "suf": 4275,
      "depends": 4276,
      "facilit": 4277,
      "consumers": 4278,
      "independent": 4279,
      "request": 4280,
      "records": 4281,
      "column": 4282,
      "\")": 4283,
      "wash": 4284,
      "organic": 4285,
      "Under": 4286,
      "garlic": 4287,
      "dishes": 4288,
      "Fo": 4289,
      "fat": 4290,
      "pal": 4291,
      "grew": 4292,
      "cris": 4293,
      "generation": 4294,
      "potentially": 4295,
      "filling": 4296,
      "parents": 4297,
      "jud": 4298,
      "breaking": 4299,
      "responses": 4300,
      "ification": 4301,
      "eventually": 4302,
      "Organ": 4303,
      "competitive": 4304,
      "teaspoon": 4305,
      "cers": 4306,
      "helped": 4307,
      "arry": 4308,
      "orange": 4309,
      "overcome": 4310,
      "powers": 4311,
      "optimize": 4312,
      "candid": 4313,
      "parameters": 4314,
      "estic": 4315,
      "forests": 4316,
      "rapidly": 4317,
      "ai": 4318,
      "aks": 4319,
      "eper": 4320,
      "hous": 4321,
      "threat": 4322,
      "acade": 4323,
      "creates": 4324,
      "assistance": 4325,
      "camera": 4326,
      "conflict": 4327,
      "maximum": 4328,
      "turning": 4329,
      "friendship": 4330,
      "sort": 4331,
      "documents": 4332,
      "Internet": 4333,
      "Avoid": 4334,
      "ml": 4335,
      "map": 4336,
      "van": 4337,
      "couldn": 4338,
      "characterized": 4339,
      "glass": 4340,
      "System": 4341,
      "gro": 4342,
      "vul": 4343,
      "attle": 4344,
      "visually": 4345,
      "version": 4346,
      "assistants": 4347,
      "symptom": 4348,
      "links": 4349,
      "principles": 4350,
      "opinions": 4351,
      "asure": 4352,
      "apart": 4353,
      "Then": 4354,
      "outcome": 4355,
      "ups": 4356,
      "Have": 4357,
      "sight": 4358,
      "robots": 4359,
      "below": 4360,
      "peaceful": 4361,
      "hydr": 4362,
      "increasingly": 4363,
      "America": 4364,
      "Monitor": 4365,
      "33": 4366,
      "Sam": 4367,
      "Time": 4368,
      "zy": 4369,
      "robot": 4370,
      "Ensure": 4371,
      "consumer": 4372,
      "reviews": 4373,
      "Spe": 4374,
      "saving": 4375,
      "lightly": 4376,
      "Ge": 4377,
      "font": 4378,
      "ptions": 4379,
      "brush": 4380,
      "willing": 4381,
      "ension": 4382,
      "late": 4383,
      "rive": 4384,
      "appliances": 4385,
      "hidden": 4386,
      "intended": 4387,
      "connections": 4388,
      "exchange": 4389,
      "convenience": 4390,
      "agriculture": 4391,
      "ods": 4392,
      "altern": 4393,
      "essay": 4394,
      "itement": 4395,
      "sunlight": 4396,
      "half": 4397,
      "jus": 4398,
      "reward": 4399,
      "urban": 4400,
      "released": 4401,
      "orders": 4402,
      "obtain": 4403,
      "performing": 4404,
      "dreams": 4405,
      "agree": 4406,
      "Instru": 4407,
      "intui": 4408,
      "engaged": 4409,
      "facing": 4410,
      "monitoring": 4411,
      "landscape": 4412,
      "fundamental": 4413,
      "More": 4414,
      "sell": 4415,
      "representing": 4416,
      "cryp": 4417,
      "Consider": 4418,
      "ancient": 4419,
      "mother": 4420,
      "coding": 4421,
      "seek": 4422,
      "profit": 4423,
      "Air": 4424,
      "Good": 4425,
      "acting": 4426,
      "phen": 4427,
      "invent": 4428,
      "storm": 4429,
      "confidence": 4430,
      "Education": 4431,
      "Fur": 4432,
      "Friend": 4433,
      "Sim": 4434,
      "aming": 4435,
      "visible": 4436,
      "focuses": 4437,
      "Emily": 4438,
      "synthesis": 4439,
      "supervised": 4440,
      "chronic": 4441,
      "Alex": 4442,
      "Up": 4443,
      "creatures": 4444,
      "via": 4445,
      "anging": 4446,
      "spaces": 4447,
      "powder": 4448,
      "learned": 4449,
      "ublic": 4450,
      "vulner": 4451,
      "ek": 4452,
      "gory": 4453,
      "iced": 4454,
      "emp": 4455,
      "stronger": 4456,
      "pattern": 4457,
      "detailed": 4458,
      "campaigns": 4459,
      "yet": 4460,
      "orus": 4461,
      "ading": 4462,
      "universe": 4463,
      "expert": 4464,
      "component": 4465,
      "excitement": 4466,
      "fro": 4467,
      "correctly": 4468,
      "ER": 4469,
      "alle": 4470,
      "arm": 4471,
      "decor": 4472,
      "poons": 4473,
      "movies": 4474,
      "visitors": 4475,
      "symptoms": 4476,
      "mut": 4477,
      "snow": 4478,
      "resist": 4479,
      "lled": 4480,
      "discr": 4481,
      "dogs": 4482,
      "dynamic": 4483,
      "South": 4484,
      "Their": 4485,
      "instant": 4486,
      "cooked": 4487,
      "wait": 4488,
      "28": 4489,
      "Bre": 4490,
      "binary": 4491,
      "forestation": 4492,
      "HTML": 4493,
      "icine": 4494,
      "illed": 4495,
      "courses": 4496,
      "Promo": 4497,
      "behaviors": 4498,
      "chance": 4499,
      "ads": 4500,
      "themes": 4501,
      "Analy": 4502,
      "html": 4503,
      "accomplish": 4504,
      "Nat": 4505,
      "amm": 4506,
      "Enjoy": 4507,
      "property": 4508,
      "properties": 4509,
      "engineering": 4510,
      "pathy": 4511,
      "beginning": 4512,
      "igr": 4513,
      "sometimes": 4514,
      "elect": 4515,
      "thentic": 4516,
      "actively": 4517,
      "Cost": 4518,
      "private": 4519,
      "fed": 4520,
      "ado": 4521,
      "ongo": 4522,
      "divided": 4523,
      "exciting": 4524,
      "Dear": 4525,
      "meat": 4526,
      "traits": 4527,
      "bags": 4528,
      "Hello": 4529,
      "Micro": 4530,
      "collect": 4531,
      "speaker": 4532,
      "battery": 4533,
      "suggestions": 4534,
      "Rep": 4535,
      "reput": 4536,
      "parties": 4537,
      "listen": 4538,
      "difficul": 4539,
      "starts": 4540,
      "degree": 4541,
      "Next": 4542,
      "yellow": 4543,
      "icing": 4544,
      "icts": 4545,
      "traction": 4546,
      "Without": 4547,
      "channels": 4548,
      "crow": 4549,
      "scr": 4550,
      "asts": 4551,
      "icy": 4552,
      "meals": 4553,
      "external": 4554,
      "poor": 4555,
      "illness": 4556,
      "regression": 4557,
      "dragon": 4558,
      "suitable": 4559,
      "distinct": 4560,
      "Cor": 4561,
      "river": 4562,
      "cultures": 4563,
      "listening": 4564,
      "governments": 4565,
      "warmth": 4566,
      "Colle": 4567,
      "walls": 4568,
      "Sw": 4569,
      "len": 4570,
      "wear": 4571,
      "Ingre": 4572,
      "worked": 4573,
      "engines": 4574,
      "depart": 4575,
      "pursu": 4576,
      "clothing": 4577,
      "City": 4578,
      "lor": 4579,
      "stim": 4580,
      "workplace": 4581,
      "standards": 4582,
      "regions": 4583,
      "apples": 4584,
      "prioritize": 4585,
      "relaxation": 4586,
      "Virtual": 4587,
      "70": 4588,
      "intr": 4589,
      "held": 4590,
      "ified": 4591,
      "rule": 4592,
      "categories": 4593,
      "Ingredients": 4594,
      "inks": 4595,
      "stac": 4596,
      "stra": 4597,
      "objectives": 4598,
      "apply": 4599,
      "missing": 4600,
      "automation": 4601,
      "responsibilities": 4602,
      "distribution": 4603,
      "Am": 4604,
      "remind": 4605,
      "ised": 4606,
      "arms": 4607,
      "Provide": 4608,
      "Comp": 4609,
      "Train": 4610,
      "frequency": 4611,
      "acceler": 4612,
      "Intelligence": 4613,
      "Germany": 4614,
      "?\"": 4615,
      "gers": 4616,
      "iar": 4617,
      "td": 4618,
      "ugh": 4619,
      "strain": 4620,
      "combined": 4621,
      "Contin": 4622,
      "discovered": 4623,
      "viol": 4624,
      "meditation": 4625,
      "relig": 4626,
      "electron": 4627,
      "Natural": 4628,
      "bree": 4629,
      "gins": 4630,
      "True": 4631,
      "representation": 4632,
      "magical": 4633,
      "satisfied": 4634,
      "British": 4635,
      "Access": 4636,
      "ceed": 4637,
      "exact": 4638,
      "sition": 4639,
      "figure": 4640,
      "bits": 4641,
      "iling": 4642,
      "serves": 4643,
      "protecting": 4644,
      "reached": 4645,
      "availability": 4646,
      "Fi": 4647,
      "Fol": 4648,
      "atus": 4649,
      "ump": 4650,
      "shar": 4651,
      "collected": 4652,
      "smartphone": 4653,
      "flexible": 4654,
      "width": 4655,
      "Langu": 4656,
      "neigh": 4657,
      "claim": 4658,
      "teams": 4659,
      "Now": 4660,
      "cher": 4661,
      "yout": 4662,
      "responding": 4663,
      "automatically": 4664,
      "35": 4665,
      "pun": 4666,
      "quantum": 4667,
      "anywhere": 4668,
      "normal": 4669,
      "Hy": 4670,
      "gical": 4671,
      "forces": 4672,
      "iding": 4673,
      "seeking": 4674,
      "faced": 4675,
      "menu": 4676,
      "BC": 4677,
      "gs": 4678,
      "div": 4679,
      "illa": 4680,
      "fulness": 4681,
      "chatbot": 4682,
      "Manage": 4683,
      "grocer": 4684,
      "concise": 4685,
      "econd": 4686,
      "Second": 4687,
      "send": 4688,
      "thetic": 4689,
      "dio": 4690,
      "discovery": 4691,
      "ashion": 4692,
      "Practice": 4693,
      "believ": 4694,
      "appearance": 4695,
      "President": 4696,
      "2x": 4697,
      "rice": 4698,
      "wave": 4699,
      "geo": 4700,
      "bra": 4701,
      "structures": 4702,
      "Deep": 4703,
      "meets": 4704,
      "updated": 4705,
      "Serv": 4706,
      "blockchain": 4707,
      "Instructions": 4708,
      "Cal": 4709,
      "Red": 4710,
      "proto": 4711,
      "oppos": 4712,
      "filter": 4713,
      "classify": 4714,
      "..": 4715,
      "Sk": 4716,
      "Wr": 4717,
      "bri": 4718,
      "rou": 4719,
      "inated": 4720,
      "designing": 4721,
      "cups": 4722,
      "purchases": 4723,
      "completely": 4724,
      "Main": 4725,
      "fly": 4726,
      "deal": 4727,
      "beat": 4728,
      "amp": 4729,
      "conservation": 4730,
      "grate": 4731,
      "obstac": 4732,
      "organisms": 4733,
      "Model": 4734,
      "occurs": 4735,
      "conversation": 4736,
      "Language": 4737,
      "fine": 4738,
      "tch": 4739,
      "isol": 4740,
      "itary": 4741,
      "respective": 4742,
      "useum": 4743,
      "pher": 4744,
      "solid": 4745,
      "topics": 4746,
      "People": 4747,
      "academic": 4748,
      "VID": 4749,
      "antic": 4750,
      "intuitive": 4751,
      "National": 4752,
      "QL": 4753,
      "cou": 4754,
      "tag": 4755,
      "acking": 4756,
      "experienced": 4757,
      "allowed": 4758,
      "generating": 4759,
      "markets": 4760,
      "drug": 4761,
      "classic": 4762,
      "complexity": 4763,
      "switch": 4764,
      "bringing": 4765,
      "received": 4766,
      "Gree": 4767,
      "Sof": 4768,
      "SQL": 4769,
      "bold": 4770,
      "tu": 4771,
      "utr": 4772,
      "exten": 4773,
      "node": 4774,
      "clou": 4775,
      "Process": 4776,
      "breeze": 4777,
      "99": 4778,
      "thr": 4779,
      "urt": 4780,
      "prepar": 4781,
      "fiber": 4782,
      "habitats": 4783,
      "prepared": 4784,
      "phenomen": 4785,
      "Govern": 4786,
      "RO": 4787,
      "hair": 4788,
      "chop": 4789,
      "notes": 4790,
      "numer": 4791,
      "severe": 4792,
      "files": 4793,
      "split": 4794,
      "Follow": 4795,
      "Glo": 4796,
      "His": 4797,
      "TV": 4798,
      "Tit": 4799,
      "file": 4800,
      "rhy": 4801,
      "produced": 4802,
      "turned": 4803,
      "27": 4804,
      "Ty": 4805,
      "roles": 4806,
      "accounts": 4807,
      "feat": 4808,
      "serious": 4809,
      "arian": 4810,
      "appealing": 4811,
      "vehicle": 4812,
      "horiz": 4813,
      "Build": 4814,
      "democr": 4815,
      "mers": 4816,
      "quer": 4817,
      "cot": 4818,
      "coast": 4819,
      "grain": 4820,
      "goes": 4821,
      "approaches": 4822,
      "internal": 4823,
      "library": 4824,
      "ahead": 4825,
      "veys": 4826,
      "click": 4827,
      "spam": 4828,
      "medicine": 4829,
      "ployment": 4830,
      "Emma": 4831,
      "particles": 4832,
      "COVID": 4833,
      "North": 4834,
      "Uni": 4835,
      "cro": 4836,
      "rely": 4837,
      "encies": 4838,
      "interview": 4839,
      "Place": 4840,
      "select": 4841,
      "tributed": 4842,
      "frequently": 4843,
      "later": 4844,
      "tun": 4845,
      "tire": 4846,
      "stances": 4847,
      "preneur": 4848,
      "authentic": 4849,
      "aws": 4850,
      "surance": 4851,
      "operate": 4852,
      "lligent": 4853,
      "Smart": 4854,
      "Face": 4855,
      "lose": 4856,
      "whis": 4857,
      "embr": 4858,
      "owners": 4859,
      "greatest": 4860,
      "cuis": 4861,
      "watching": 4862,
      "attem": 4863,
      "chart": 4864,
      "uries": 4865,
      "join": 4866,
      "volume": 4867,
      "returned": 4868,
      "classified": 4869,
      "separate": 4870,
      "Further": 4871,
      "Pot": 4872,
      "Ren": 4873,
      "retain": 4874,
      "sole": 4875,
      "brings": 4876,
      "earn": 4877,
      "branches": 4878,
      "Two": 4879,
      "ilosoph": 4880,
      "nia": 4881,
      "ror": 4882,
      "staff": 4883,
      "stric": 4884,
      "colate": 4885,
      "targeted": 4886,
      "drop": 4887,
      "Life": 4888,
      "exploration": 4889,
      "Cap": 4890,
      "_list": 4891,
      "ctu": 4892,
      "ago": 4893,
      "Enh": 4894,
      "cription": 4895,
      "prediction": 4896,
      "wanted": 4897,
      "magic": 4898,
      "removing": 4899,
      "Phys": 4900,
      "Open": 4901,
      "incredible": 4902,
      "mitigate": 4903,
      "straight": 4904,
      "ior": 4905,
      "master": 4906,
      "tea": 4907,
      "ride": 4908,
      "Chorus": 4909,
      "integer": 4910,
      "manufacturing": 4911,
      "ensures": 4912,
      "Sum": 4913,
      "ored": 4914,
      "unable": 4915,
      "layout": 4916,
      "walked": 4917,
      "exercis": 4918,
      "navigation": 4919,
      "label": 4920,
      "':": 4921,
      "AT": 4922,
      "fight": 4923,
      "pick": 4924,
      "bond": 4925,
      "Sub": 4926,
      "zzle": 4927,
      "sat": 4928,
      "rock": 4929,
      "enty": 4930,
      "herself": 4931,
      "predictive": 4932,
      "classroom": 4933,
      "looked": 4934,
      "resolution": 4935,
      "probability": 4936,
      "Find": 4937,
      "dance": 4938,
      "ost": 4939,
      "tex": 4940,
      "smile": 4941,
      "detection": 4942,
      "DNA": 4943,
      "Num": 4944,
      "Te": 4945,
      "sample": 4946,
      "tore": 4947,
      "ably": 4948,
      "keting": 4949,
      "productive": 4950,
      "apping": 4951,
      "gives": 4952,
      "Gu": 4953,
      "vation": 4954,
      "inqu": 4955,
      "alax": 4956,
      "units": 4957,
      "flight": 4958,
      "finance": 4959,
      "define": 4960,
      "confident": 4961,
      "accept": 4962,
      "ongoing": 4963,
      "Company": 4964,
      "fashion": 4965,
      "gender": 4966,
      "sist": 4967,
      "wish": 4968,
      "spin": 4969,
      "attend": 4970,
      "teacher": 4971,
      "prompt": 4972,
      "golden": 4973,
      "Before": 4974,
      "wire": 4975,
      "arg": 4976,
      "amples": 4977,
      "unknown": 4978,
      "nothing": 4979,
      "shor": 4980,
      "brave": 4981,
      "Reduce": 4982,
      "affected": 4983,
      "immediately": 4984,
      "ots": 4985,
      "portion": 4986,
      "unex": 4987,
      "Microsoft": 4988,
      "scan": 4989,
      "imination": 4990,
      "noise": 4991,
      "specifically": 4992,
      "reader": 4993,
      "ashing": 4994,
      "ition": 4995,
      "amless": 4996,
      "kets": 4997,
      "rix": 4998,
      "populations": 4999,
      "clearly": 5000,
      "primarily": 5001,
      "pollut": 5002,
      "strengths": 5003,
      "False": 5004,
      "ada": 5005,
      "adop": 5006,
      "uncertain": 5007,
      "functionality": 5008,
      "comprehensive": 5009,
      "Ben": 5010,
      "Bus": 5011,
      "arguments": 5012,
      "Define": 5013,
      "rating": 5014,
      "depression": 5015,
      "loo": 5016,
      "lihood": 5017,
      "tomatoes": 5018,
      "seemed": 5019,
      "biodiversity": 5020,
      "incredibly": 5021,
      "Sur": 5022,
      "Try": 5023,
      "cil": 5024,
      "really": 5025,
      "sizes": 5026,
      "applied": 5027,
      "attack": 5028,
      "swim": 5029,
      "itchen": 5030,
      "htt": 5031,
      "stick": 5032,
      "inations": 5033,
      "retail": 5034,
      "cancer": 5035,
      "lip": 5036,
      "percent": 5037,
      "harmon": 5038,
      "broken": 5039,
      "shapes": 5040,
      "mathematical": 5041,
      "sq": 5042,
      "infl": 5043,
      "tigh": 5044,
      "astr": 5045,
      "respir": 5046,
      "excess": 5047,
      "sia": 5048,
      "strings": 5049,
      "ference": 5050,
      "studying": 5051,
      "inch": 5052,
      "minute": 5053,
      "purposes": 5054,
      "placement": 5055,
      "himself": 5056,
      "burning": 5057,
      "scene": 5058,
      "recommended": 5059,
      "principle": 5060,
      "Support": 5061,
      "families": 5062,
      "dinner": 5063,
      "thick": 5064,
      "resource": 5065,
      "thern": 5066,
      "promotions": 5067,
      "bank": 5068,
      "optimization": 5069,
      "meaningful": 5070,
      "sharp": 5071,
      "begins": 5072,
      "ams": 5073,
      "elimin": 5074,
      "hero": 5075,
      "arities": 5076,
      "summar": 5077,
      "advice": 5078,
      "profound": 5079,
      "Alice": 5080,
      "affordable": 5081,
      "olive": 5082,
      "six": 5083,
      "interesting": 5084,
      "colon": 5085,
      "implemented": 5086,
      "autonom": 5087,
      "casting": 5088,
      "statistical": 5089,
      "deri": 5090,
      "college": 5091,
      "sensors": 5092,
      "Sir": 5093,
      "iny": 5094,
      "intense": 5095,
      "End": 5096,
      "colleag": 5097,
      "styles": 5098,
      "circle": 5099,
      "motivation": 5100,
      "dangerous": 5101,
      "supplies": 5102,
      "23": 5103,
      "65": 5104,
      "Evalu": 5105,
      "Sci": 5106,
      "father": 5107,
      "slightly": 5108,
      "thre": 5109,
      "inj": 5110,
      "ley": 5111,
      "seamless": 5112,
      "proced": 5113,
      "clar": 5114,
      "outdoor": 5115,
      "actual": 5116,
      "elf": 5117,
      "capac": 5118,
      "movements": 5119,
      "grateful": 5120,
      "cuisine": 5121,
      "---": 5122,
      "memor": 5123,
      "successfully": 5124,
      "implementation": 5125,
      "holders": 5126,
      "moments": 5127,
      "schools": 5128,
      "millions": 5129,
      "Effe": 5130,
      "investing": 5131,
      "metrics": 5132,
      "justice": 5133,
      "('": 5134,
      "La": 5135,
      "Nature": 5136,
      "lasting": 5137,
      "race": 5138,
      "deals": 5139,
      "seeds": 5140,
      "resil": 5141,
      "wrong": 5142,
      "dependent": 5143,
      "women": 5144,
      "Global": 5145,
      "mouth": 5146,
      "ises": 5147,
      "stability": 5148,
      "deeper": 5149,
      "conom": 5150,
      "concentr": 5151,
      "Environment": 5152,
      "continuous": 5153,
      "appreciate": 5154,
      "hypothesis": 5155,
      "clouds": 5156,
      "Facebook": 5157,
      "3D": 5158,
      "Ret": 5159,
      "modif": 5160,
      "calls": 5161,
      "Marketing": 5162,
      "survival": 5163,
      "ministr": 5164,
      "Econom": 5165,
      "glow": 5166,
      "reaction": 5167,
      "acid": 5168,
      "mod": 5169,
      "grass": 5170,
      "perspective": 5171,
      "consists": 5172,
      "addressing": 5173,
      "domain": 5174,
      "motivated": 5175,
      "kindness": 5176,
      "chatbots": 5177,
      "tablespoons": 5178,
      "estimated": 5179,
      "Test": 5180,
      "plenty": 5181,
      "however": 5182,
      "arrange": 5183,
      "stir": 5184,
      "ecosystem": 5185,
      "beliefs": 5186,
      "Part": 5187,
      "status": 5188,
      "deforestation": 5189,
      "poly": 5190,
      "fing": 5191,
      "reve": 5192,
      "plication": 5193,
      "betes": 5194,
      "likelihood": 5195,
      "dividing": 5196,
      "chosen": 5197,
      "titutions": 5198,
      "dar": 5199,
      "iger": 5200,
      "liqu": 5201,
      "asters": 5202,
      "cules": 5203,
      "handling": 5204,
      "represented": 5205,
      "doesn": 5206,
      "taxes": 5207,
      "authorized": 5208,
      "remaining": 5209,
      "tracting": 5210,
      "accordingly": 5211,
      "rewards": 5212,
      "pressing": 5213,
      "vironments": 5214,
      "programmed": 5215,
      "colorful": 5216,
      "professionals": 5217,
      "execu": 5218,
      "unexpected": 5219,
      "://": 5220,
      "Boo": 5221,
      "Paris": 5222,
      "sche": 5223,
      "prot": 5224,
      "irt": 5225,
      "utter": 5226,
      "shift": 5227,
      "avors": 5228,
      "valent": 5229,
      "nuts": 5230,
      "tests": 5231,
      "practical": 5232,
      "incentives": 5233,
      "Ca": 5234,
      "Day": 5235,
      "son": 5236,
      "ann": 5237,
      "atile": 5238,
      "almost": 5239,
      "stro": 5240,
      "bell": 5241,
      "consul": 5242,
      "nodes": 5243,
      "tempor": 5244,
      "idespread": 5245,
      "category": 5246,
      "packed": 5247,
      "holds": 5248,
      "mountains": 5249,
      "molecules": 5250,
      "AP": 5251,
      "Jane": 5252,
      "forever": 5253,
      "foundation": 5254,
      "Employ": 5255,
      "juice": 5256,
      "Business": 5257,
      "Wind": 5258,
      "widespread": 5259,
      "orient": 5260,
      "accoun": 5261,
      "neutr": 5262,
      "tense": 5263,
      "rows": 5264,
      "marks": 5265,
      "Stud": 5266,
      "realistic": 5267,
      "browser": 5268,
      "surrounded": 5269,
      "studies": 5270,
      "transition": 5271,
      "Not": 5272,
      "winter": 5273,
      "eras": 5274,
      "adds": 5275,
      "dedicated": 5276,
      "branch": 5277,
      "].": 5278,
      "cide": 5279,
      "grade": 5280,
      "attacks": 5281,
      "posts": 5282,
      "influen": 5283,
      "conduct": 5284,
      "alternative": 5285,
      "29": 5286,
      "Rom": 5287,
      "national": 5288,
      "environments": 5289,
      "leep": 5290,
      "entre": 5291,
      "iles": 5292,
      "upper": 5293,
      "etc": 5294,
      "ansion": 5295,
      "readers": 5296,
      "Union": 5297,
      "currently": 5298,
      "attach": 5299,
      "automate": 5300,
      "minimum": 5301,
      "linked": 5302,
      "Cur": 5303,
      "bles": 5304,
      "ives": 5305,
      "inser": 5306,
      "aspect": 5307,
      "acqu": 5308,
      "izza": 5309,
      "supporting": 5310,
      "micro": 5311,
      "floor": 5312,
      "zero": 5313,
      "Cali": 5314,
      "dden": 5315,
      "rein": 5316,
      "illi": 5317,
      "clust": 5318,
      "bodies": 5319,
      "intelligent": 5320,
      "promotes": 5321,
      "electronic": 5322,
      "settings": 5323,
      "industrial": 5324,
      "empty": 5325,
      "https": 5326,
      "moves": 5327,
      "transmit": 5328,
      "raid": 5329,
      "basket": 5330,
      "Collabor": 5331,
      "circum": 5332,
      "Verse": 5333,
      "dur": 5334,
      "endless": 5335,
      "auto": 5336,
      "Enter": 5337,
      "consuming": 5338,
      "interested": 5339,
      "stretch": 5340,
      "beneficial": 5341,
      "Other": 5342,
      "dol": 5343,
      "creature": 5344,
      "philosoph": 5345,
      "Web": 5346,
      "repeti": 5347,
      "Electr": 5348,
      "Green": 5349,
      "Blue": 5350,
      "Furthermore": 5351,
      "dense": 5352,
      "wich": 5353,
      "formed": 5354,
      "discounts": 5355,
      "speaking": 5356,
      "providers": 5357,
      "consci": 5358,
      "buildings": 5359,
      "frustr": 5360,
      "teaching": 5361,
      "didn": 5362,
      "reflect": 5363,
      "obstacles": 5364,
      "lemon": 5365,
      "Assist": 5366,
      "technological": 5367,
      "Begin": 5368,
      "paid": 5369,
      "locate": 5370,
      "cryption": 5371,
      "kitchen": 5372,
      "encounter": 5373,
      "comparis": 5374,
      "buying": 5375,
      "talk": 5376,
      "articles": 5377,
      "habitat": 5378,
      "Serve": 5379,
      "quantity": 5380,
      "List": 5381,
      "Min": 5382,
      "OS": 5383,
      "heating": 5384,
      "sudden": 5385,
      "dian": 5386,
      "sycho": 5387,
      "desire": 5388,
      "presented": 5389,
      "institutions": 5390,
      "treasure": 5391,
      "keywords": 5392,
      "bike": 5393,
      "forcement": 5394,
      "diabetes": 5395,
      "revolutionized": 5396,
      "wider": 5397,
      "usable": 5398,
      "describes": 5399,
      "emergency": 5400,
      "columns": 5401,
      "schedul": 5402,
      "crypto": 5403,
      "chopped": 5404,
      "Script": 5405,
      "olog": 5406,
      "vest": 5407,
      "boy": 5408,
      "asets": 5409,
      "bridge": 5410,
      "afraid": 5411,
      "complain": 5412,
      "immers": 5413,
      "encouraging": 5414,
      "Could": 5415,
      "El": 5416,
      "recip": 5417,
      "edges": 5418,
      "organizing": 5419,
      "196": 5420,
      "raise": 5421,
      "born": 5422,
      "indicates": 5423,
      "Cel": 5424,
      "Sp": 5425,
      "band": 5426,
      "fats": 5427,
      "ister": 5428,
      "pectives": 5429,
      "posure": 5430,
      "ears": 5431,
      "chocolate": 5432,
      "purchasing": 5433,
      "breathing": 5434,
      "introduced": 5435,
      "execut": 5436,
      "implications": 5437,
      "Ban": 5438,
      "ae": 5439,
      "ders": 5440,
      "inating": 5441,
      "onion": 5442,
      "itude": 5443,
      "fornia": 5444,
      "datasets": 5445,
      "reduction": 5446,
      "2019": 5447,
      "showing": 5448,
      "sustainability": 5449,
      "frequent": 5450,
      "street": 5451,
      ".,": 5452,
      "false": 5453,
      "idel": 5454,
      "eral": 5455,
      "promis": 5456,
      "teen": 5457,
      "doors": 5458,
      "surpr": 5459,
      "checking": 5460,
      "agraph": 5461,
      "opposite": 5462,
      "itter": 5463,
      "aced": 5464,
      "pros": 5465,
      "plas": 5466,
      "covers": 5467,
      "aches": 5468,
      "sius": 5469,
      "leadership": 5470,
      "covered": 5471,
      "Prof": 5472,
      "expertise": 5473,
      "California": 5474,
      ")^": 5475,
      "fa": 5476,
      "composed": 5477,
      "quiet": 5478,
      "perspectives": 5479,
      "timate": 5480,
      "plot": 5481,
      "stood": 5482,
      "happen": 5483,
      "participants": 5484,
      "diagnosis": 5485,
      "Management": 5486,
      "inquir": 5487,
      "threats": 5488,
      "repair": 5489,
      "restric": 5490,
      "rolling": 5491,
      "rent": 5492,
      "grown": 5493,
      "guidel": 5494,
      "participate": 5495,
      "labeled": 5496,
      "discrimination": 5497,
      "entrepreneur": 5498,
      "\"\"": 5499,
      "IP": 5500,
      "Tim": 5501,
      "mes": 5502,
      "inse": 5503,
      "iled": 5504,
      "reser": 5505,
      "grid": 5506,
      "Program": 5507,
      "names": 5508,
      "container": 5509,
      "equipped": 5510,
      "encourages": 5511,
      "JavaScript": 5512,
      "demonstr": 5513,
      "Product": 5514,
      "vitamins": 5515,
      "34": 5516,
      "Park": 5517,
      "gic": 5518,
      "inputs": 5519,
      "idance": 5520,
      "pressive": 5521,
      "myster": 5522,
      "diction": 5523,
      "cipitation": 5524,
      "continuously": 5525,
      "consistently": 5526,
      "matrix": 5527,
      "incorporating": 5528,
      "skilled": 5529,
      "construction": 5530,
      "500": 5531,
      "Ref": 5532,
      "ctic": 5533,
      "slo": 5534,
      "wit": 5535,
      "tious": 5536,
      "asy": 5537,
      "ultural": 5538,
      "melo": 5539,
      "cipl": 5540,
      "empathy": 5541,
      "criter": 5542,
      "Exer": 5543,
      "reaches": 5544,
      "weeks": 5545,
      "cutting": 5546,
      "Africa": 5547,
      "px": 5548,
      "chair": 5549,
      "doctors": 5550,
      "manager": 5551,
      "Prote": 5552,
      "refresh": 5553,
      "tailor": 5554,
      "Work": 5555,
      "visualization": 5556,
      "resolve": 5557,
      "failure": 5558,
      "crops": 5559,
      "(-": 5560,
      "89": 5561,
      "Lu": 5562,
      "Lim": 5563,
      "Sa": 5564,
      "Utili": 5565,
      "hop": 5566,
      "nal": 5567,
      "uge": 5568,
      "insul": 5569,
      "busy": 5570,
      "improvements": 5571,
      "locations": 5572,
      "military": 5573,
      "investi": 5574,
      "Eating": 5575,
      "hit": 5576,
      "honey": 5577,
      "mouse": 5578,
      "selling": 5579,
      "stract": 5580,
      "objective": 5581,
      "election": 5582,
      "crime": 5583,
      "bling": 5584,
      "solute": 5585,
      "worldwide": 5586,
      "closer": 5587,
      "bias": 5588,
      "occas": 5589,
      "falls": 5590,
      "photos": 5591,
      "established": 5592,
      "billion": 5593,
      "possibilities": 5594,
      "queries": 5595,
      "Cour": 5596,
      "Home": 5597,
      "Harry": 5598,
      "gently": 5599,
      "pted": 5600,
      "tooth": 5601,
      "icit": 5602,
      "suc": 5603,
      "idential": 5604,
      "timely": 5605,
      "desk": 5606,
      "paragraph": 5607,
      "planation": 5608,
      "Anal": 5609,
      "knowing": 5610,
      "Also": 5611,
      "flower": 5612,
      "legs": 5613,
      "displays": 5614,
      "referred": 5615,
      "incorporate": 5616,
      "massive": 5617,
      "protocol": 5618,
      "Coun": 5619,
      "nest": 5620,
      "rees": 5621,
      "tension": 5622,
      "functional": 5623,
      "guidance": 5624,
      "Determine": 5625,
      "representative": 5626,
      "arrived": 5627,
      "sandwich": 5628,
      "regardless": 5629,
      "craft": 5630,
      "')": 5631,
      "narr": 5632,
      "shad": 5633,
      "grounds": 5634,
      "angles": 5635,
      "marine": 5636,
      "everyday": 5637,
      "facial": 5638,
      "truth": 5639,
      "Cloud": 5640,
      "radius": 5641,
      "spirit": 5642,
      "AN": 5643,
      "Bar": 5644,
      "thrive": 5645,
      "remin": 5646,
      "weights": 5647,
      "stands": 5648,
      "Star": 5649,
      "searching": 5650,
      "199": 5651,
      "messaging": 5652,
      "preventing": 5653,
      "villagers": 5654,
      "struggle": 5655,
      "extensive": 5656,
      "pollutants": 5657,
      "Last": 5658,
      "bad": 5659,
      "gaming": 5660,
      "heit": 5661,
      "Indu": 5662,
      "pricing": 5663,
      "precision": 5664,
      "discipl": 5665,
      "producing": 5666,
      "asted": 5667,
      "renheit": 5668,
      "hosp": 5669,
      "described": 5670,
      "emotion": 5671,
      "ahrenheit": 5672,
      "sliced": 5673,
      "slowly": 5674,
      "tight": 5675,
      "Dig": 5676,
      "bacter": 5677,
      "jun": 5678,
      "retr": 5679,
      "reports": 5680,
      "excl": 5681,
      "precipitation": 5682,
      "Compu": 5683,
      "electrons": 5684,
      "cleaner": 5685,
      "titude": 5686,
      "paint": 5687,
      "concern": 5688,
      "Respon": 5689,
      "Optim": 5690,
      "Engine": 5691,
      "translation": 5692,
      "neighbor": 5693,
      "Physical": 5694,
      "shorter": 5695,
      "colleagues": 5696,
      "liquid": 5697,
      "Aug": 5698,
      "plate": 5699,
      "finds": 5700,
      "published": 5701,
      "influenced": 5702,
      "transformed": 5703,
      "scenari": 5704,
      "electronics": 5705,
      "Har": 5706,
      "cab": 5707,
      "cular": 5708,
      "yo": 5709,
      "told": 5710,
      "rots": 5711,
      "ilarities": 5712,
      "exhi": 5713,
      "commands": 5714,
      "underlying": 5715,
      "texture": 5716,
      "Conne": 5717,
      "breakfast": 5718,
      "avoiding": 5719,
      "repeat": 5720,
      "opinion": 5721,
      "Ab": 5722,
      "inher": 5723,
      "refr": 5724,
      "susp": 5725,
      "periods": 5726,
      "passing": 5727,
      "hyper": 5728,
      "storing": 5729,
      "collaborate": 5730,
      "monthly": 5731,
      "seems": 5732,
      "gravity": 5733,
      "mistakes": 5734,
      "Par": 5735,
      "UR": 5736,
      "inking": 5737,
      "robo": 5738,
      "capability": 5739,
      "bloom": 5740,
      "tailored": 5741,
      "picture": 5742,
      "Introduction": 5743,
      "candidate": 5744,
      "comparison": 5745,
      "DP": 5746,
      "Rome": 5747,
      "Sc": 5748,
      "akness": 5749,
      "cash": 5750,
      "thes": 5751,
      "lever": 5752,
      "ceans": 5753,
      "phant": 5754,
      "considering": 5755,
      "enjoyable": 5756,
      "staying": 5757,
      "Development": 5758,
      "commitment": 5759,
      "absorb": 5760,
      "Title": 5761,
      "capacity": 5762,
      "conscious": 5763,
      "Ri": 5764,
      "sad": 5765,
      "bel": 5766,
      "cel": 5767,
      "ambi": 5768,
      "urric": 5769,
      "distractions": 5770,
      "produces": 5771,
      "designs": 5772,
      "magne": 5773,
      "selecting": 5774,
      "shaping": 5775,
      "clients": 5776,
      "horizon": 5777,
      "Cam": 5778,
      "ium": 5779,
      "spot": 5780,
      "proof": 5781,
      "math": 5782,
      "leaders": 5783,
      "equi": 5784,
      "closed": 5785,
      "enhancing": 5786,
      "nuclear": 5787,
      "Plant": 5788,
      "delivering": 5789,
      "nearby": 5790,
      "Human": 5791,
      "Software": 5792,
      "Exercise": 5793,
      "Date": 5794,
      "backs": 5795,
      "crop": 5796,
      "lush": 5797,
      "wings": 5798,
      "ulated": 5799,
      "pets": 5800,
      "umbled": 5801,
      "flavors": 5802,
      "experiencing": 5803,
      "vegetable": 5804,
      "unders": 5805,
      "CP": 5806,
      "ha": 5807,
      "stages": 5808,
      "aby": 5809,
      "tric": 5810,
      "anger": 5811,
      "Who": 5812,
      "positions": 5813,
      "diced": 5814,
      "Provid": 5815,
      "smartphones": 5816,
      "photosynthesis": 5817,
      "excited": 5818,
      "waiting": 5819,
      "keys": 5820,
      "calories": 5821,
      "survey": 5822,
      "fying": 5823,
      "rooms": 5824,
      "Canada": 5825,
      "adventures": 5826,
      "agonist": 5827,
      "bulbs": 5828,
      "amazing": 5829,
      "neurons": 5830,
      "housing": 5831,
      "guidelines": 5832,
      "'.": 5833,
      "Pour": 5834,
      "Whether": 5835,
      "alian": 5836,
      "ults": 5837,
      "metal": 5838,
      "outline": 5839,
      "corner": 5840,
      "signs": 5841,
      "download": 5842,
      "vote": 5843,
      "collecting": 5844,
      "banking": 5845,
      "contributions": 5846,
      "conflicts": 5847,
      "survive": 5848,
      "Area": 5849,
      "Geor": 5850,
      "ammals": 5851,
      "exercises": 5852,
      "Celsius": 5853,
      "Analysis": 5854,
      "36": 5855,
      "Clean": 5856,
      "Ocean": 5857,
      "drough": 5858,
      "eager": 5859,
      "firm": 5860,
      "kers": 5861,
      "raw": 5862,
      "tac": 5863,
      "arise": 5864,
      "stable": 5865,
      "chip": 5866,
      "phase": 5867,
      "visibility": 5868,
      "surroundings": 5869,
      "ropical": 5870,
      "fixed": 5871,
      "laughter": 5872,
      "battle": 5873,
      "insurance": 5874,
      "retri": 5875,
      "tray": 5876,
      "ull": 5877,
      "cade": 5878,
      "foreign": 5879,
      "physics": 5880,
      "popularity": 5881,
      "immune": 5882,
      "transparent": 5883,
      "Communication": 5884,
      "uary": 5885,
      "throw": 5886,
      "assum": 5887,
      "unte": 5888,
      "lide": 5889,
      "healthier": 5890,
      "ships": 5891,
      "predicting": 5892,
      "currency": 5893,
      "employment": 5894,
      "optimal": 5895,
      "Note": 5896,
      "Moon": 5897,
      "Autom": 5898,
      "Effici": 5899,
      "vacation": 5900,
      "26": 5901,
      "erts": 5902,
      "composition": 5903,
      "quite": 5904,
      "illing": 5905,
      "fications": 5906,
      "Why": 5907,
      "ails": 5908,
      "Conclusion": 5909,
      "decimal": 5910,
      "regulate": 5911,
      "immediate": 5912,
      "European": 5913,
      "retrieve": 5914,
      ")/": 5915,
      "Mark": 5916,
      "Pred": 5917,
      "fills": 5918,
      "pizza": 5919,
      "tles": 5920,
      "zen": 5921,
      "repl": 5922,
      "iconic": 5923,
      "ighter": 5924,
      "intensity": 5925,
      "ameter": 5926,
      "driver": 5927,
      "ROM": 5928,
      "criteria": 5929,
      "3x": 5930,
      "administr": 5931,
      "mode": 5932,
      "telling": 5933,
      "disasters": 5934,
      "reets": 5935,
      "environmentally": 5936,
      "similarities": 5937,
      "fier": 5938,
      "nucle": 5939,
      "databases": 5940,
      "reputation": 5941,
      "numerical": 5942,
      "consult": 5943,
      "Big": 5944,
      "hob": 5945,
      "oceans": 5946,
      "stake": 5947,
      "chant": 5948,
      "flat": 5949,
      "dependence": 5950,
      "passwords": 5951,
      "farming": 5952,
      "thorough": 5953,
      "ictures": 5954,
      "difficulty": 5955,
      "Service": 5956,
      "Rel": 5957,
      "Wi": 5958,
      "_string": 5959,
      "beans": 5960,
      "oles": 5961,
      "unit": 5962,
      "inequality": 5963,
      "fulfill": 5964,
      "improves": 5965,
      "planets": 5966,
      "Adv": 5967,
      "thank": 5968,
      "Experi": 5969,
      "valued": 5970,
      "tablespoon": 5971,
      "indicating": 5972,
      "Offer": 5973,
      "Number": 5974,
      ");": 5975,
      "Best": 5976,
      "Mex": 5977,
      "bark": 5978,
      "native": 5979,
      "rit": 5980,
      "roots": 5981,
      "streets": 5982,
      "bear": 5983,
      "trou": 5984,
      "included": 5985,
      "ission": 5986,
      "Being": 5987,
      "percentage": 5988,
      "CSS": 5989,
      "haz": 5990,
      "wand": 5991,
      "accom": 5992,
      "dates": 5993,
      "indicate": 5994,
      "lessons": 5995,
      "inkle": 5996,
      "opening": 5997,
      "enjoying": 5998,
      "moral": 5999,
      "meetings": 6000,
      "Smith": 6001,
      "niture": 6002,
      "Processing": 6003,
      "reminder": 6004,
      "Cr": 6005,
      "Email": 6006,
      "PM": 6007,
      "Pho": 6008,
      "Select": 6009,
      "vacc": 6010,
      "abol": 6011,
      "tel": 6012,
      "relatively": 6013,
      "checks": 6014,
      "Compan": 6015,
      "controlled": 6016,
      "barri": 6017,
      "Output": 6018,
      "decline": 6019,
      "crisis": 6020,
      "Governments": 6021,
      "procedures": 6022,
      "Computer": 6023,
      "Mem": 6024,
      "psycho": 6025,
      "unauthorized": 6026,
      "sheet": 6027,
      "functioning": 6028,
      "restaurants": 6029,
      "Users": 6030,
      "Fahrenheit": 6031,
      "cket": 6032,
      "lun": 6033,
      "rig": 6034,
      "rays": 6035,
      "ison": 6036,
      "quo": 6037,
      "destru": 6038,
      "despite": 6039,
      "apped": 6040,
      "drinks": 6041,
      "clock": 6042,
      "trend": 6043,
      "picnic": 6044,
      "Regularly": 6045,
      "dimension": 6046,
      "Science": 6047,
      "occasion": 6048,
      "Know": 6049,
      "sending": 6050,
      "erals": 6051,
      "clic": 6052,
      "strict": 6053,
      "distributed": 6054,
      "owned": 6055,
      "delight": 6056,
      "evening": 6057,
      "deeply": 6058,
      "metaph": 6059,
      "phrases": 6060,
      "introduction": 6061,
      "Neural": 6062,
      "suffer": 6063,
      "Text": 6064,
      "ptional": 6065,
      "rac": 6066,
      "escape": 6067,
      "assem": 6068,
      "trig": 6069,
      "kept": 6070,
      "Thus": 6071,
      "195": 6072,
      "biases": 6073,
      "digit": 6074,
      "aims": 6075,
      "Content": 6076,
      "independence": 6077,
      "tranqu": 6078,
      "Renew": 6079,
      "Mexic": 6080,
      "gift": 6081,
      "kil": 6082,
      "revers": 6083,
      "exposure": 6084,
      "anged": 6085,
      "funds": 6086,
      "opened": 6087,
      "teachers": 6088,
      "mention": 6089,
      "yoga": 6090,
      "grocery": 6091,
      "memorable": 6092,
      "48": 6093,
      "Gi": 6094,
      "jum": 6095,
      "kit": 6096,
      "lists": 6097,
      "museum": 6098,
      "ral": 6099,
      "divide": 6100,
      "weakness": 6101,
      "utor": 6102,
      "actually": 6103,
      "serene": 6104,
      "ifying": 6105,
      "plane": 6106,
      "specified": 6107,
      "venture": 6108,
      "researchers": 6109,
      "lengths": 6110,
      "Security": 6111,
      "streaming": 6112,
      "closely": 6113,
      "SELE": 6114,
      "SELECT": 6115,
      "Ber": 6116,
      "Black": 6117,
      "gone": 6118,
      "mir": 6119,
      "sme": 6120,
      "robust": 6121,
      "stal": 6122,
      "pha": 6123,
      "foster": 6124,
      "Chat": 6125,
      "devast": 6126,
      "electrical": 6127,
      "sitting": 6128,
      "muscle": 6129,
      "household": 6130,
      "statistics": 6131,
      "believed": 6132,
      "brief": 6133,
      "concentration": 6134,
      "scheme": 6135,
      "Gather": 6136,
      "Public": 6137,
      "h2": 6138,
      "pictures": 6139,
      "wants": 6140,
      "aters": 6141,
      "estern": 6142,
      "illu": 6143,
      "Intern": 6144,
      "pron": 6145,
      "command": 6146,
      "aked": 6147,
      "Review": 6148,
      "blocks": 6149,
      "Fran": 6150,
      "inspire": 6151,
      "equivalent": 6152,
      "Ju": 6153,
      "Power": 6154,
      "Taking": 6155,
      "iers": 6156,
      "ker": 6157,
      "nur": 6158,
      "inate": 6159,
      "reverse": 6160,
      "attr": 6161,
      "tough": 6162,
      "stead": 6163,
      "observ": 6164,
      "calend": 6165,
      "smallest": 6166,
      "guar": 6167,
      "initiatives": 6168,
      "shelter": 6169,
      "Effective": 6170,
      "Renewable": 6171,
      "37": 6172,
      "Bet": 6173,
      "Look": 6174,
      "km": 6175,
      "vas": 6176,
      "abstract": 6177,
      "avoc": 6178,
      "anticip": 6179,
      "minimal": 6180,
      "micals": 6181,
      "inspired": 6182,
      "compassion": 6183,
      "rol": 6184,
      "ament": 6185,
      "weigh": 6186,
      "intervention": 6187,
      "owner": 6188,
      "minerals": 6189,
      "completing": 6190,
      "gged": 6191,
      "sentences": 6192,
      "combine": 6193,
      "igration": 6194,
      "magnetic": 6195,
      "Predic": 6196,
      "67": 6197,
      "Lon": 6198,
      "asked": 6199,
      "conserve": 6200,
      "longest": 6201,
      "equality": 6202,
      "talent": 6203,
      "window": 6204,
      "surrounding": 6205,
      "atomic": 6206,
      "vanilla": 6207,
      "grains": 6208,
      "inquiries": 6209,
      "Back": 6210,
      "Oc": 6211,
      "lone": 6212,
      "reactions": 6213,
      "concl": 6214,
      "shine": 6215,
      "Indian": 6216,
      "polar": 6217,
      "Expl": 6218,
      "cameras": 6219,
      "runs": 6220,
      "hearts": 6221,
      "breathtaking": 6222,
      "sophistic": 6223,
      "LED": 6224,
      "transparency": 6225,
      "secret": 6226,
      "Companies": 6227,
      "Dog": 6228,
      "Ma": 6229,
      "Na": 6230,
      "vasc": 6231,
      "reusable": 6232,
      "lls": 6233,
      "Italian": 6234,
      "shipping": 6235,
      "univers": 6236,
      "median": 6237,
      "Moreover": 6238,
      "influencers": 6239,
      "vascular": 6240,
      "Food": 6241,
      "Pur": 6242,
      "Trees": 6243,
      "mployment": 6244,
      "teeth": 6245,
      "fost": 6246,
      "managed": 6247,
      "chemicals": 6248,
      "adequ": 6249,
      "max_": 6250,
      "inventory": 6251,
      "Greek": 6252,
      "Digital": 6253,
      "Pop": 6254,
      "ba": 6255,
      "mber": 6256,
      "pure": 6257,
      "anes": 6258,
      "orrow": 6259,
      "stone": 6260,
      "uting": 6261,
      "umn": 6262,
      "inten": 6263,
      "cardio": 6264,
      "glu": 6265,
      "seconds": 6266,
      "Creating": 6267,
      "Shop": 6268,
      "shaped": 6269,
      "SEO": 6270,
      "Calcul": 6271,
      "stakeholders": 6272,
      "Cook": 6273,
      "Val": 6274,
      "gation": 6275,
      "tune": 6276,
      "arrow": 6277,
      "noti": 6278,
      "rip": 6279,
      "Chin": 6280,
      "supports": 6281,
      "emphasis": 6282,
      "boundaries": 6283,
      "www": 6284,
      "facilitate": 6285,
      "Act": 6286,
      "Sust": 6287,
      "fle": 6288,
      "grant": 6289,
      "arranged": 6290,
      "occup": 6291,
      "payments": 6292,
      "gathering": 6293,
      "gathered": 6294,
      "integration": 6295,
      "conversion": 6296,
      "agram": 6297,
      "extremely": 6298,
      "resilience": 6299,
      "Sustain": 6300,
      "++": 6301,
      "James": 6302,
      "rt": 6303,
      "tropical": 6304,
      "thous": 6305,
      "recovery": 6306,
      "ched": 6307,
      "ili": 6308,
      "corresponding": 6309,
      "crimin": 6310,
      "thereby": 6311,
      "odd": 6312,
      "facts": 6313,
      "audio": 6314,
      "addressed": 6315,
      "traveling": 6316,
      "banana": 6317,
      "embrace": 6318,
      "Enhanced": 6319,
      "plastics": 6320,
      "Clear": 6321,
      "consume": 6322,
      "cooperation": 6323,
      "goti": 6324,
      "highlights": 6325,
      "performs": 6326,
      "natives": 6327,
      "combat": 6328,
      "instruction": 6329,
      "tributes": 6330,
      "printing": 6331,
      "castle": 6332,
      "atoms": 6333,
      "route": 6334,
      "42": 6335,
      "Av": 6336,
      "Play": 6337,
      "San": 6338,
      "iments": 6339,
      "impossible": 6340,
      "therefore": 6341,
      "weak": 6342,
      "shoes": 6343,
      "comparing": 6344,
      "bub": 6345,
      "personality": 6346,
      "transaction": 6347,
      "State": 6348,
      "Below": 6349,
      "iteration": 6350,
      "melting": 6351,
      "URL": 6352,
      "International": 6353,
      "IT": 6354,
      "cin": 6355,
      "ga": 6356,
      "ham": 6357,
      "tically": 6358,
      "udes": 6359,
      "highlight": 6360,
      "requests": 6361,
      "tops": 6362,
      "uests": 6363,
      "matches": 6364,
      "African": 6365,
      "hesit": 6366,
      "circumstances": 6367,
      "Cent": 6368,
      "ito": 6369,
      "ials": 6370,
      "vegan": 6371,
      "forced": 6372,
      "Ange": 6373,
      "performed": 6374,
      "clothes": 6375,
      "nutrition": 6376,
      "flood": 6377,
      "ascending": 6378,
      "yogurt": 6379,
      "Employe": 6380,
      "eties": 6381,
      "nation": 6382,
      "rid": 6383,
      "meant": 6384,
      "apor": 6385,
      "therap": 6386,
      "Three": 6387,
      "quest": 6388,
      "umes": 6389,
      "itely": 6390,
      "followers": 6391,
      "bonds": 6392,
      "digits": 6393,
      "explicit": 6394,
      "Word": 6395,
      "posting": 6396,
      "slice": 6397,
      "corporate": 6398,
      "affects": 6399,
      "Solar": 6400,
      "pooling": 6401,
      "department": 6402,
      "alaxy": 6403,
      "autonomous": 6404,
      "FROM": 6405,
      "Mars": 6406,
      "inches": 6407,
      "rose": 6408,
      "station": 6409,
      "ometers": 6410,
      "apers": 6411,
      "overview": 6412,
      "careful": 6413,
      "diges": 6414,
      "placing": 6415,
      "contributing": 6416,
      "debt": 6417,
      "overwhelmed": 6418,
      "Experience": 6419,
      "44": 6420,
      "Multi": 6421,
      "pting": 6422,
      "anas": 6423,
      "island": 6424,
      "segment": 6425,
      "geting": 6426,
      "wet": 6427,
      "engers": 6428,
      "margin": 6429,
      "visuals": 6430,
      "provider": 6431,
      "Change": 6432,
      "Repe": 6433,
      "potatoes": 6434,
      "fewer": 6435,
      "automated": 6436,
      "tested": 6437,
      "treatments": 6438,
      "integrated": 6439,
      "Salt": 6440,
      "overwhelming": 6441,
      "phenomenon": 6442,
      "sqrt": 6443,
      "Bay": 6444,
      "Fresh": 6445,
      "RAM": 6446,
      "rust": 6447,
      "cha": 6448,
      "abs": 6449,
      "soda": 6450,
      "crust": 6451,
      "visiting": 6452,
      "drink": 6453,
      "Hey": 6454,
      "responsive": 6455,
      "Condu": 6456,
      "expressed": 6457,
      "selected": 6458,
      "practicing": 6459,
      "destro": 6460,
      "reflects": 6461,
      "reminders": 6462,
      "Economic": 6463,
      "succeed": 6464,
      "London": 6465,
      "Vol": 6466,
      "chances": 6467,
      "grat": 6468,
      "posing": 6469,
      "communic": 6470,
      "subst": 6471,
      "slices": 6472,
      "Prepare": 6473,
      "scientist": 6474,
      "Transport": 6475,
      "Throughout": 6476,
      "darkness": 6477,
      "Mus": 6478,
      "Pay": 6479,
      "Tok": 6480,
      "cater": 6481,
      "interconnected": 6482,
      "brid": 6483,
      "versatile": 6484,
      "identified": 6485,
      "investors": 6486,
      "fitting": 6487,
      "evaluating": 6488,
      "cooling": 6489,
      "winds": 6490,
      "familiar": 6491,
      "Chinese": 6492,
      "Cy": 6493,
      "fasc": 6494,
      "ron": 6495,
      "tutor": 6496,
      "lets": 6497,
      "cose": 6498,
      "Initi": 6499,
      "signal": 6500,
      "Encour": 6501,
      "fierce": 6502,
      "releases": 6503,
      "manageable": 6504,
      "flows": 6505,
      "male": 6506,
      "drawing": 6507,
      "mixed": 6508,
      "validation": 6509,
      "Strong": 6510,
      "estimate": 6511,
      "qualities": 6512,
      "Similar": 6513,
      "temporary": 6514,
      "Industri": 6515,
      "Care": 6516,
      "script": 6517,
      "alive": 6518,
      "sector": 6519,
      "moved": 6520,
      "sho": 6521,
      "coat": 6522,
      "oph": 6523,
      "eleg": 6524,
      "grammar": 6525,
      "guess": 6526,
      "Examples": 6527,
      "osity": 6528,
      "panels": 6529,
      "furniture": 6530,
      "Customers": 6531,
      "radiation": 6532,
      "heavily": 6533,
      "CO2": 6534,
      "Understanding": 6535,
      "rhyth": 6536,
      "Building": 6537,
      "harmony": 6538,
      "Ci": 6539,
      "Event": 6540,
      "Jan": 6541,
      "loud": 6542,
      "lunch": 6543,
      "org": 6544,
      "orous": 6545,
      "entry": 6546,
      "moist": 6547,
      "finish": 6548,
      "Stu": 6549,
      "puzzle": 6550,
      "holding": 6551,
      "integrity": 6552,
      "spring": 6553,
      "bustling": 6554,
      "literature": 6555,
      "Making": 6556,
      "fes": 6557,
      "ias": 6558,
      "wis": 6559,
      "die": 6560,
      "cla": 6561,
      "shif": 6562,
      "artist": 6563,
      "informative": 6564,
      "achievements": 6565,
      "advancement": 6566,
      "radio": 6567,
      "steam": 6568,
      "exceptional": 6569,
      "converting": 6570,
      "washing": 6571,
      "vulnerable": 6572,
      "Roman": 6573,
      "glucose": 6574,
      ".)": 6575,
      "AD": 6576,
      "Bas": 6577,
      "CD": 6578,
      "Lin": 6579,
      "_name": 6580,
      "fare": 6581,
      "ye": 6582,
      "yield": 6583,
      "roid": 6584,
      "copy": 6585,
      "oot": 6586,
      "learns": 6587,
      "fox": 6588,
      "inclusive": 6589,
      "doctor": 6590,
      "musical": 6591,
      "containing": 6592,
      "explores": 6593,
      "burn": 6594,
      "evolving": 6595,
      "Reduced": 6596,
      "Twitter": 6597,
      "manipulate": 6598,
      "double": 6599,
      "coastal": 6600,
      "authentication": 6601,
      "protagonist": 6602,
      "mysterious": 6603,
      "George": 6604,
      "Fun": 6605,
      "Lead": 6606,
      "Search": 6607,
      "wi": 6608,
      "attributes": 6609,
      "absolute": 6610,
      "unnecessary": 6611,
      "strange": 6612,
      "otherwise": 6613,
      "developments": 6614,
      "Remove": 6615,
      "graphical": 6616,
      "offered": 6617,
      "losses": 6618,
      "dedication": 6619,
      "aneously": 6620,
      "repeated": 6621,
      "conducting": 6622,
      "secrets": 6623,
      "calendar": 6624,
      "64": 6625,
      "Ed": 6626,
      "IN": 6627,
      "border": 6628,
      "pti": 6629,
      "itational": 6630,
      "negoti": 6631,
      "lie": 6632,
      "shade": 6633,
      "cos": 6634,
      "forming": 6635,
      "whereas": 6636,
      "posal": 6637,
      "modeling": 6638,
      "companion": 6639,
      "investments": 6640,
      "package": 6641,
      "Kingdom": 6642,
      "stimul": 6643,
      "Io": 6644,
      "Line": 6645,
      "liness": 6646,
      "tang": 6647,
      "encryption": 6648,
      "loan": 6649,
      "aren": 6650,
      "conges": 6651,
      "fund": 6652,
      "seeing": 6653,
      "economies": 6654,
      "statements": 6655,
      "experts": 6656,
      "Fru": 6657,
      "introduce": 6658,
      "streamline": 6659,
      "promise": 6660,
      "revolutionize": 6661,
      "Environmental": 6662,
      "weaknesses": 6663,
      "Bo": 6664,
      "density": 6665,
      "guests": 6666,
      "rab": 6667,
      "whe": 6668,
      "vector": 6669,
      "promin": 6670,
      "Information": 6671,
      "blend": 6672,
      "whose": 6673,
      "wellbeing": 6674,
      "ballo": 6675,
      "refine": 6676,
      "oxid": 6677,
      "reliance": 6678,
      "Preheat": 6679,
      "discusses": 6680,
      "Super": 6681,
      "()`": 6682,
      "soul": 6683,
      "respiratory": 6684,
      "immersive": 6685,
      "dictionary": 6686,
      "congestion": 6687,
      "Pan": 6688,
      "Sleep": 6689,
      "ici": 6690,
      "dele": 6691,
      "worry": 6692,
      "former": 6693,
      "eted": 6694,
      "printer": 6695,
      "blan": 6696,
      "servers": 6697,
      "funding": 6698,
      "turb": 6699,
      "drives": 6700,
      "drivers": 6701,
      "protected": 6702,
      "muscles": 6703,
      "raz": 6704,
      "evaluation": 6705,
      "adjusting": 6706,
      "incere": 6707,
      "manufactur": 6708,
      "television": 6709,
      "deadlines": 6710,
      "Collect": 6711,
      "repetitive": 6712,
      "Utilize": 6713,
      "Hi": 6714,
      "Imag": 6715,
      "OR": 6716,
      "Oh": 6717,
      "mammals": 6718,
      "pour": 6719,
      "ante": 6720,
      "formal": 6721,
      "izable": 6722,
      "curious": 6723,
      "turing": 6724,
      "tried": 6725,
      "stocks": 6726,
      "accessed": 6727,
      "olden": 6728,
      "sunny": 6729,
      "storms": 6730,
      "strategic": 6731,
      "Because": 6732,
      "expansion": 6733,
      "danger": 6734,
      "Evaluate": 6735,
      "Assistant": 6736,
      "IoT": 6737,
      "GB": 6738,
      "Ru": 6739,
      "Wal": 6740,
      "bills": 6741,
      "recycle": 6742,
      "asking": 6743,
      "asive": 6744,
      "confer": 6745,
      "dust": 6746,
      "upcoming": 6747,
      "observed": 6748,
      "manual": 6749,
      "talking": 6750,
      "heads": 6751,
      "volunte": 6752,
      "unemployment": 6753,
      "Reducing": 6754,
      "pursue": 6755,
      "argue": 6756,
      "Even": 6757,
      "Key": 6758,
      "Nu": 6759,
      "WH": 6760,
      "nership": 6761,
      "ram": 6762,
      "older": 6763,
      "plug": 6764,
      "flash": 6765,
      "Where": 6766,
      "surveys": 6767,
      "equations": 6768,
      "submit": 6769,
      "typical": 6770,
      "sorting": 6771,
      "graphs": 6772,
      "journal": 6773,
      "aught": 6774,
      "Constitution": 6775,
      "Austr": 6776,
      "demonstrate": 6777,
      "hydrogen": 6778,
      "existence": 6779,
      "bravery": 6780,
      "University": 6781,
      "August": 6782,
      "Mac": 6783,
      "Sep": 6784,
      "spark": 6785,
      "ancy": 6786,
      "replace": 6787,
      "tired": 6788,
      "ressive": 6789,
      "boards": 6790,
      "num1": 6791,
      "num2": 6792,
      "Together": 6793,
      "genre": 6794,
      "walks": 6795,
      "competit": 6796,
      "squares": 6797,
      "limitations": 6798,
      "Training": 6799,
      "texts": 6800,
      "Mal": 6801,
      "ell": 6802,
      "icon": 6803,
      "rome": 6804,
      "acci": 6805,
      "cozy": 6806,
      "endang": 6807,
      "optional": 6808,
      "bert": 6809,
      "earli": 6810,
      "advoc": 6811,
      "strive": 6812,
      "Imp": 6813,
      "basis": 6814,
      "accidents": 6815,
      "converted": 6816,
      "alternatives": 6817,
      "Break": 6818,
      "featuring": 6819,
      "Better": 6820,
      "Bir": 6821,
      "Fire": 6822,
      "oke": 6823,
      "ray": 6824,
      "tood": 6825,
      "persu": 6826,
      "fold": 6827,
      "cube": 6828,
      "containers": 6829,
      "confirm": 6830,
      "labels": 6831,
      "uncertainty": 6832,
      "June": 6833,
      "Nations": 6834,
      "degrad": 6835,
      "iday": 6836,
      "noon": 6837,
      "shining": 6838,
      "romantic": 6839,
      "flag": 6840,
      "finished": 6841,
      "signals": 6842,
      "domin": 6843,
      "sleek": 6844,
      "majority": 6845,
      "catching": 6846,
      "penal": 6847,
      "forgettable": 6848,
      "looks": 6849,
      "destruction": 6850,
      "Mary": 6851,
      "gave": 6852,
      "ranging": 6853,
      "orph": 6854,
      "illet": 6855,
      "aint": 6856,
      "charging": 6857,
      "significance": 6858,
      "Today": 6859,
      "bonacci": 6860,
      "Decision": 6861,
      "enjoyed": 6862,
      "circu": 6863,
      "symbols": 6864,
      "swimming": 6865,
      "scheduling": 6866,
      "slope": 6867,
      "exclusive": 6868,
      "pronoun": 6869,
      "39": 6870,
      "Mag": 6871,
      "Rus": 6872,
      "Sou": 6873,
      "Vo": 6874,
      "Washing": 6875,
      "kin": 6876,
      "ptive": 6877,
      "tiny": 6878,
      "deploy": 6879,
      "dealing": 6880,
      "sections": 6881,
      "ils": 6882,
      "motor": 6883,
      "residents": 6884,
      "peak": 6885,
      "coher": 6886,
      "mining": 6887,
      "1000": 6888,
      "centuries": 6889,
      "factory": 6890,
      "Well": 6891,
      "salad": 6892,
      "experiments": 6893,
      "gradu": 6894,
      "Install": 6895,
      "recently": 6896,
      "ranking": 6897,
      "Network": 6898,
      "River": 6899,
      "Photo": 6900,
      "kilometers": 6901,
      "400": 6902,
      "Self": 6903,
      "['": 6904,
      "retention": 6905,
      "ampl": 6906,
      "plates": 6907,
      "etal": 6908,
      "workout": 6909,
      "workforce": 6910,
      "applying": 6911,
      "Head": 6912,
      "integers": 6913,
      "connecting": 6914,
      "compelling": 6915,
      "measured": 6916,
      "gradually": 6917,
      "Instagram": 6918,
      "Media": 6919,
      "reasoning": 6920,
      "luck": 6921,
      "preserve": 6922,
      "birthday": 6923,
      "bacteria": 6924,
      "Providing": 6925,
      "Encouraging": 6926,
      "Having": 6927,
      "Mind": 6928,
      "Space": 6929,
      "dough": 6930,
      "plying": 6931,
      "tage": 6932,
      "oring": 6933,
      "stumbled": 6934,
      "chlor": 6935,
      "Third": 6936,
      "timeline": 6937,
      "spect": 6938,
      "tens": 6939,
      "grows": 6940,
      "feels": 6941,
      "appeal": 6942,
      "preferred": 6943,
      "peppers": 6944,
      "Sales": 6945,
      "pivo": 6946,
      "intricate": 6947,
      "melody": 6948,
      "understood": 6949,
      "cardiovascular": 6950,
      "Ho": 6951,
      "recall": 6952,
      "onions": 6953,
      "stack": 6954,
      "defe": 6955,
      "aven": 6956,
      "carrots": 6957,
      "198": 6958,
      "subjects": 6959,
      "Altern": 6960,
      "camp": 6961,
      "displayed": 6962,
      "packaging": 6963,
      "Control": 6964,
      "inspiring": 6965,
      "saying": 6966,
      "assigned": 6967,
      "Visit": 6968,
      "Write": 6969,
      "preparing": 6970,
      "Mob": 6971,
      "Span": 6972,
      "Would": 6973,
      "bath": 6974,
      "fits": 6975,
      "pes": 6976,
      "recycl": 6977,
      "adoption": 6978,
      "canvas": 6979,
      "ulent": 6980,
      "notic": 6981,
      "notable": 6982,
      "simult": 6983,
      "keeps": 6984,
      "partner": 6985,
      "physically": 6986,
      "controls": 6987,
      "paying": 6988,
      "Color": 6989,
      "defining": 6990,
      "consistency": 6991,
      "committed": 6992,
      "centralized": 6993,
      "expanding": 6994,
      "schedules": 6995,
      "Transportation": 6996,
      "+=": 6997,
      "GDP": 6998,
      "Row": 6999,
      "blow": 7000,
      "gressive": 7001,
      "rul": 7002,
      "wine": 7003,
      "omin": 7004,
      "comments": 7005,
      "died": 7006,
      "portray": 7007,
      "persist": 7008,
      "marked": 7009,
      "relations": 7010,
      "activ": 7011,
      "caps": 7012,
      "combines": 7013,
      "mindfulness": 7014,
      "falling": 7015,
      "achievable": 7016,
      "decreased": 7017,
      "Market": 7018,
      "receives": 7019,
      "struggling": 7020,
      "Personalization": 7021,
      "pasta": 7022,
      "execute": 7023,
      "oriented": 7024,
      "sophisticated": 7025,
      "31": 7026,
      "Bob": 7027,
      "Dif": 7028,
      "Est": 7029,
      "Pass": 7030,
      "aer": 7031,
      "wing": 7032,
      "anks": 7033,
      "losing": 7034,
      "impressive": 7035,
      "advis": 7036,
      "contract": 7037,
      "essence": 7038,
      "unforgettable": 7039,
      "credi": 7040,
      "fiction": 7041,
      "ette": 7042,
      "breed": 7043,
      "evenly": 7044,
      "Total": 7045,
      "predictable": 7046,
      "Most": 7047,
      "scope": 7048,
      "previously": 7049,
      "honest": 7050,
      "spoken": 7051,
      "preserving": 7052,
      "wireless": 7053,
      "Francis": 7054,
      "endangered": 7055,
      "Job": 7056,
      "Rob": 7057,
      "tack": 7058,
      "announ": 7059,
      "ald": 7060,
      "arter": 7061,
      "adults": 7062,
      "iden": 7063,
      "liber": 7064,
      "disadvantages": 7065,
      "berry": 7066,
      "transmission": 7067,
      "backgrounds": 7068,
      "logic": 7069,
      "aimed": 7070,
      "Like": 7071,
      "watched": 7072,
      "Engage": 7073,
      "gravitational": 7074,
      "vitamin": 7075,
      "Continu": 7076,
      "Similarly": 7077,
      "competitors": 7078,
      "Cats": 7079,
      "Game": 7080,
      "Los": 7081,
      "Wel": 7082,
      "bone": 7083,
      "ccer": 7084,
      "mac": 7085,
      "varies": 7086,
      "woods": 7087,
      "incorrect": 7088,
      "aside": 7089,
      "iction": 7090,
      "stery": 7091,
      "prop": 7092,
      "division": 7093,
      "weet": 7094,
      "writer": 7095,
      "proteins": 7096,
      "salary": 7097,
      "harder": 7098,
      "adjustments": 7099,
      "GPS": 7100,
      "occurred": 7101,
      "utilizing": 7102,
      "appreciation": 7103,
      "emphasizes": 7104,
      "lux": 7105,
      "Promote": 7106,
      "witness": 7107,
      "July": 7108,
      "Spanish": 7109,
      "38": 7110,
      "][": 7111,
      "awe": 7112,
      "fies": 7113,
      "gun": 7114,
      "huge": 7115,
      "pink": 7116,
      "shades": 7117,
      "Invest": 7118,
      "commer": 7119,
      "desert": 7120,
      "predicted": 7121,
      "connectivity": 7122,
      "sunset": 7123,
      "orem": 7124,
      "traveled": 7125,
      "Emp": 7126,
      "specialized": 7127,
      "syntax": 7128,
      "accident": 7129,
      "Integr": 7130,
      "________________": 7131,
      "appointments": 7132,
      "resistance": 7133,
      "metaphor": 7134,
      "adequate": 7135,
      "simultaneously": 7136,
      "ST": 7137,
      "exh": 7138,
      "pleas": 7139,
      "differenti": 7140,
      "corn": 7141,
      "airy": 7142,
      "profile": 7143,
      "supported": 7144,
      "Algorith": 7145,
      "volcan": 7146,
      "distant": 7147,
      "descriptions": 7148,
      "discussions": 7149,
      "installed": 7150,
      "framework": 7151,
      "hosting": 7152,
      "Benef": 7153,
      "Angeles": 7154,
      "Asia": 7155,
      "Fl": 7156,
      "Hist": 7157,
      "None": 7158,
      "Spr": 7159,
      "hurric": 7160,
      "recur": 7161,
      "alize": 7162,
      "alog": 7163,
      "arith": 7164,
      "suited": 7165,
      "nel": 7166,
      "fees": 7167,
      "vivid": 7168,
      "tomorrow": 7169,
      "disaster": 7170,
      "corners": 7171,
      "whenever": 7172,
      "complement": 7173,
      "tale": 7174,
      "header": 7175,
      "------------": 7176,
      "biggest": 7177,
      "spinach": 7178,
      "annual": 7179,
      "protocols": 7180,
      "refriger": 7181,
      "attractive": 7182,
      "bt": 7183,
      "gap": 7184,
      "pings": 7185,
      "||": 7186,
      "acing": 7187,
      "igue": 7188,
      "verbal": 7189,
      "Inc": 7190,
      "tingu": 7191,
      "straw": 7192,
      "Italy": 7193,
      "paralle": 7194,
      "skillet": 7195,
      "resulted": 7196,
      "grams": 7197,
      "197": 7198,
      "humanity": 7199,
      "mainly": 7200,
      "showcase": 7201,
      "computational": 7202,
      "speeds": 7203,
      "recognized": 7204,
      "pushing": 7205,
      "complaints": 7206,
      "Efficiency": 7207,
      "AC": 7208,
      "fab": 7209,
      "fant": 7210,
      "tons": 7211,
      "atten": 7212,
      "asp": 7213,
      "iration": 7214,
      "ammal": 7215,
      "abund": 7216,
      "tration": 7217,
      "clutter": 7218,
      "displacement": 7219,
      "humid": 7220,
      "cheer": 7221,
      "tember": 7222,
      "printed": 7223,
      "Art": 7224,
      "Android": 7225,
      "roads": 7226,
      "engineer": 7227,
      "Bring": 7228,
      "hiking": 7229,
      "saved": 7230,
      "enabled": 7231,
      "Depending": 7232,
      "finger": 7233,
      "Repeat": 7234,
      ")(": 7235,
      "49": 7236,
      "Happ": 7237,
      "cart": 7238,
      "gall": 7239,
      "unlike": 7240,
      "exposed": 7241,
      "explanation": 7242,
      "ums": 7243,
      "coll": 7244,
      "mostly": 7245,
      "ponent": 7246,
      "networking": 7247,
      "farmers": 7248,
      "minimizing": 7249,
      "lined": 7250,
      "answers": 7251,
      "imagination": 7252,
      "assignments": 7253,
      "welcome": 7254,
      "mathematics": 7255,
      "fraudulent": 7256,
      "democracy": 7257,
      "Safe": 7258,
      "House": 7259,
      "IV": 7260,
      "Jul": 7261,
      "Love": 7262,
      "Oper": 7263,
      "Random": 7264,
      "cution": 7265,
      "eld": 7266,
      "haps": 7267,
      "iom": 7268,
      "lad": 7269,
      "rank": 7270,
      "vict": 7271,
      "zone": 7272,
      "enchant": 7273,
      "alia": 7274,
      "ented": 7275,
      "chest": 7276,
      "proposed": 7277,
      "emit": 7278,
      "phony": 7279,
      "hash": 7280,
      "desc": 7281,
      "regards": 7282,
      "advances": 7283,
      "charged": 7284,
      "findings": 7285,
      "countless": 7286,
      "Address": 7287,
      "affecting": 7288,
      "receiving": 7289,
      "Prior": 7290,
      "executed": 7291,
      "devastating": 7292,
      "avocado": 7293,
      "Welcome": 7294,
      "School": 7295,
      "session": 7296,
      "eros": 7297,
      "refin": 7298,
      "resume": 7299,
      "roof": 7300,
      "debu": 7301,
      "decide": 7302,
      "metic": 7303,
      "Input": 7304,
      "udd": 7305,
      "enger": 7306,
      "uality": 7307,
      "Child": 7308,
      "fires": 7309,
      "teamwork": 7310,
      "analyzed": 7311,
      "focusing": 7312,
      "camping": 7313,
      "limits": 7314,
      "usual": 7315,
      "evolve": 7316,
      "smoothly": 7317,
      "illnesses": 7318,
      "prosper": 7319,
      "Washington": 7320,
      "Apr": 7321,
      "Sn": 7322,
      "TP": 7323,
      "UN": 7324,
      "[]": 7325,
      "info": 7326,
      "isk": 7327,
      "editing": 7328,
      "rogen": 7329,
      "sts": 7330,
      "comed": 7331,
      "aching": 7332,
      "fulfilling": 7333,
      "adventur": 7334,
      "Firstly": 7335,
      "September": 7336,
      "ABC": 7337,
      "Lack": 7338,
      "Rest": 7339,
      "fre": 7340,
      "flying": 7341,
      "nes": 7342,
      "rics": 7343,
      "sport": 7344,
      "beef": 7345,
      "viruses": 7346,
      "forecast": 7347,
      "solved": 7348,
      "thanks": 7349,
      "classical": 7350,
      "Example": 7351,
      "relief": 7352,
      "Share": 7353,
      "Contact": 7354,
      "motivate": 7355,
      "mixing": 7356,
      "pairs": 7357,
      "Republic": 7358,
      "thousands": 7359,
      "Civil": 7360,
      "300": 7361,
      "CNN": 7362,
      "Show": 7363,
      "rural": 7364,
      "tap": 7365,
      "alpha": 7366,
      "precise": 7367,
      "ficient": 7368,
      "generates": 7369,
      "drain": 7370,
      "passes": 7371,
      "targets": 7372,
      "covering": 7373,
      "150": 7374,
      "filters": 7375,
      "farm": 7376,
      "entered": 7377,
      "melted": 7378,
      "Implementing": 7379,
      "barriers": 7380,
      "mentioned": 7381,
      "Mobile": 7382,
      "Bro": 7383,
      "Meas": 7384,
      "Scient": 7385,
      "eting": 7386,
      "mone": 7387,
      "enthus": 7388,
      "tober": 7389,
      "usions": 7390,
      "portable": 7391,
      "accessibility": 7392,
      "190": 7393,
      "Demo": 7394,
      "bottles": 7395,
      "calculates": 7396,
      "optimized": 7397,
      "Feature": 7398,
      "snacks": 7399,
      "perception": 7400,
      "excessive": 7401,
      "fulfillment": 7402,
      "CE": 7403,
      "Mia": 7404,
      "hills": 7405,
      "otic": 7406,
      "rush": 7407,
      "sights": 7408,
      "leaks": 7409,
      "adjective": 7410,
      "grab": 7411,
      "fertili": 7412,
      "interrup": 7413,
      "parks": 7414,
      "processor": 7415,
      "captiv": 7416,
      "cloth": 7417,
      "Common": 7418,
      "harsh": 7419,
      "banks": 7420,
      "adapted": 7421,
      "Bridge": 7422,
      "accountability": 7423,
      "maximize": 7424,
      "reveal": 7425,
      "API": 7426,
      "reversed": 7427,
      "observations": 7428,
      "Industrial": 7429,
      "Run": 7430,
      "boun": 7431,
      "ology": 7432,
      "tender": 7433,
      "inates": 7434,
      "is_": 7435,
      "ultimate": 7436,
      "crew": 7437,
      "preced": 7438,
      "workload": 7439,
      "append": 7440,
      "charts": 7441,
      "dram": 7442,
      "societies": 7443,
      "classifier": 7444,
      "nutritious": 7445,
      "authority": 7446,
      "transforming": 7447,
      "tells": 7448,
      "mechanics": 7449,
      "ERE": 7450,
      "Tokyo": 7451,
      ")`": 7452,
      "Age": 7453,
      "Eli": 7454,
      "Pac": 7455,
      "thical": 7456,
      "shr": 7457,
      "cohol": 7458,
      "Incl": 7459,
      "gry": 7460,
      "proud": 7461,
      "coli": 7462,
      "applic": 7463,
      "expressions": 7464,
      "dietary": 7465,
      "broth": 7466,
      "struggles": 7467,
      "figures": 7468,
      "celebrate": 7469,
      "religious": 7470,
      "Potter": 7471,
      "restrictions": 7472,
      "erosion": 7473,
      "Fit": 7474,
      "Pal": 7475,
      "dess": 7476,
      "hiring": 7477,
      "lion": 7478,
      "sac": 7479,
      "outer": 7480,
      "omas": 7481,
      "rivers": 7482,
      "dict": 7483,
      "passage": 7484,
      "sites": 7485,
      "gression": 7486,
      "symphony": 7487,
      "antioxid": 7488,
      "scores": 7489,
      "imagine": 7490,
      "dangers": 7491,
      "onym": 7492,
      "songs": 7493,
      "Japanese": 7494,
      "Windows": 7495,
      "narrative": 7496,
      "CPU": 7497,
      "October": 7498,
      "noticed": 7499,
      "Non": 7500,
      "Store": 7501,
      "Tur": 7502,
      "Tem": 7503,
      "Turn": 7504,
      "cauti": 7505,
      "caught": 7506,
      "ein": 7507,
      "h1": 7508,
      "ole": 7509,
      "ske": 7510,
      "heated": 7511,
      "guard": 7512,
      "sung": 7513,
      "consideration": 7514,
      "rectangle": 7515,
      "Sovi": 7516,
      "domestic": 7517,
      "England": 7518,
      "mechanisms": 7519,
      "subscription": 7520,
      "appointment": 7521,
      "frozen": 7522,
      "Type": 7523,
      "surprise": 7524,
      "Australia": 7525,
      "Benefits": 7526,
      "April": 7527,
      "55": 7528,
      "Block": 7529,
      "Egy": 7530,
      "Fam": 7531,
      "Ni": 7532,
      "cue": 7533,
      "inhabit": 7534,
      "tock": 7535,
      "cept": 7536,
      "teem": 7537,
      "fel": 7538,
      "ount": 7539,
      "portfol": 7540,
      "enery": 7541,
      "ownership": 7542,
      "archy": 7543,
      "biased": 7544,
      "partnership": 7545,
      "axis": 7546,
      "180": 7547,
      "windows": 7548,
      "optimizing": 7549,
      "immense": 7550,
      "aughter": 7551,
      "###": 7552,
      "agricultural": 7553,
      "debate": 7554,
      "acceleration": 7555,
      "neutral": 7556,
      "wisdom": 7557,
      "Ced": 7558,
      "Mid": 7559,
      "vic": 7560,
      "verify": 7561,
      "spices": 7562,
      "Which": 7563,
      "accessing": 7564,
      "pursuit": 7565,
      "addresses": 7566,
      "traditions": 7567,
      "rainfall": 7568,
      "transformation": 7569,
      "bullying": 7570,
      "Personalized": 7571,
      "January": 7572,
      "ET": 7573,
      "Mix": 7574,
      "Sort": 7575,
      "narrow": 7576,
      "almon": 7577,
      "offici": 7578,
      "icity": 7579,
      "seven": 7580,
      "ourselves": 7581,
      "calming": 7582,
      "relative": 7583,
      "warning": 7584,
      "putting": 7585,
      "keyboard": 7586,
      "subset": 7587,
      "voting": 7588,
      "sorcer": 7589,
      "enhanced": 7590,
      "travels": 7591,
      "Setting": 7592,
      "reference": 7593,
      "imagery": 7594,
      "basketball": 7595,
      "Cut": 7596,
      "Flex": 7597,
      "Gats": 7598,
      "Mr": 7599,
      "Tri": 7600,
      "Willi": 7601,
      "baby": 7602,
      "mort": 7603,
      "vine": 7604,
      "oranges": 7605,
      "token": 7606,
      "edit": 7607,
      "roasted": 7608,
      "bee": 7609,
      "arest": 7610,
      "thermost": 7611,
      "izard": 7612,
      "rises": 7613,
      "mindful": 7614,
      "Financial": 7615,
      "reliability": 7616,
      "updating": 7617,
      "Positive": 7618,
      "discussion": 7619,
      "Small": 7620,
      "soup": 7621,
      "broader": 7622,
      "palind": 7623,
      "agreement": 7624,
      "Return": 7625,
      "Calculate": 7626,
      "chaos": 7627,
      "destroy": 7628,
      "Gatsby": 7629,
      "Cer": 7630,
      "Haw": 7631,
      "Long": 7632,
      "fers": 7633,
      "recharge": 7634,
      "orn": 7635,
      "isl": 7636,
      "acer": 7637,
      "immer": 7638,
      "trail": 7639,
      "una": 7640,
      "outputs": 7641,
      "herbs": 7642,
      "specify": 7643,
      "pride": 7644,
      "closing": 7645,
      "malware": 7646,
      "Code": 7647,
      "browsing": 7648,
      "regulating": 7649,
      "Increase": 7650,
      "subscri": 7651,
      "Veget": 7652,
      "illustr": 7653,
      "elegant": 7654,
      "incerely": 7655,
      "Impact": 7656,
      "dominant": 7657,
      "Ag": 7658,
      "Cate": 7659,
      "Einst": 7660,
      "IM": 7661,
      "Law": 7662,
      "Mari": 7663,
      "Pen": 7664,
      "kg": 7665,
      "nations": 7666,
      "attractions": 7667,
      "static": 7668,
      "proactive": 7669,
      "prints": 7670,
      "tomato": 7671,
      "renowned": 7672,
      "elected": 7673,
      "carried": 7674,
      "variations": 7675,
      "backup": 7676,
      "surfaces": 7677,
      "insight": 7678,
      "Comple": 7679,
      "calling": 7680,
      "123": 7681,
      "approached": 7682,
      "iterate": 7683,
      "spreading": 7684,
      "paths": 7685,
      "lively": 7686,
      "participation": 7687,
      "conversations": 7688,
      "accum": 7689,
      "directed": 7690,
      "gardens": 7691,
      "wonderful": 7692,
      "punctu": 7693,
      "Conduct": 7694,
      "WHERE": 7695,
      "Establ": 7696,
      "Einstein": 7697,
      "Jake": 7698,
      "Light": 7699,
      "flies": 7700,
      "gence": 7701,
      "iosity": 7702,
      "jac": 7703,
      "scent": 7704,
      "uum": 7705,
      "orbit": 7706,
      "ache": 7707,
      "apt": 7708,
      "outlines": 7709,
      "Heat": 7710,
      "severance": 7711,
      "adient": 7712,
      "releasing": 7713,
      "Exper": 7714,
      "happened": 7715,
      "afternoon": 7716,
      "preference": 7717,
      "rounded": 7718,
      "advertise": 7719,
      "hunt": 7720,
      "Organize": 7721,
      "houses": 7722,
      "promptly": 7723,
      "accountable": 7724,
      "Central": 7725,
      "Francisco": 7726,
      "41": 7727,
      "Que": 7728,
      "Teach": 7729,
      "Ye": 7730,
      "bies": 7731,
      "dining": 7732,
      "waters": 7733,
      "alert": 7734,
      "unsupervised": 7735,
      "urally": 7736,
      "lix": 7737,
      "nose": 7738,
      "customs": 7739,
      "although": 7740,
      "virt": 7741,
      "toppings": 7742,
      "19th": 7743,
      "calculations": 7744,
      "libraries": 7745,
      "nestled": 7746,
      "Eventually": 7747,
      "Soviet": 7748,
      "acerb": 7749,
      "Hun": 7750,
      "Speci": 7751,
      "bake": 7752,
      "fu": 7753,
      "gments": 7754,
      "hier": 7755,
      "vin": 7756,
      "expressing": 7757,
      "shore": 7758,
      "coin": 7759,
      "spelling": 7760,
      "visited": 7761,
      "fraction": 7762,
      "nific": 7763,
      "athers": 7764,
      "largely": 7765,
      "Allow": 7766,
      "fluctu": 7767,
      "flowing": 7768,
      "distances": 7769,
      "poster": 7770,
      "cookies": 7771,
      "loading": 7772,
      "imeter": 7773,
      "casts": 7774,
      "emerged": 7775,
      "suggested": 7776,
      "Introducing": 7777,
      "General": 7778,
      "candidates": 7779,
      "sadness": 7780,
      "Given": 7781,
      "guarante": 7782,
      "Empire": 7783,
      "']": 7784,
      "MS": 7785,
      "Mer": 7786,
      "Rights": 7787,
      "Yog": 7788,
      "theories": 7789,
      "ora": 7790,
      "isure": 7791,
      "itar": 7792,
      "beth": 7793,
      "console": 7794,
      "compound": 7795,
      "distingu": 7796,
      "othermal": 7797,
      "Chr": 7798,
      "Unlike": 7799,
      "Comput": 7800,
      "ashed": 7801,
      "relies": 7802,
      "Class": 7803,
      "brands": 7804,
      "evaluated": 7805,
      "remotely": 7806,
      "deriv": 7807,
      "Mexico": 7808,
      "criminal": 7809,
      "->": 7810,
      "Sti": 7811,
      "Squ": 7812,
      "Sud": 7813,
      "Top": 7814,
      "fighting": 7815,
      "iance": 7816,
      "paced": 7817,
      "rati": 7818,
      "waver": 7819,
      "lect": 7820,
      "iron": 7821,
      "exacerb": 7822,
      "fell": 7823,
      "Thomas": 7824,
      "grammat": 7825,
      "multiplication": 7826,
      "harness": 7827,
      "raised": 7828,
      "Prin": 7829,
      "Prime": 7830,
      "collaborative": 7831,
      "moderate": 7832,
      "gained": 7833,
      "priorities": 7834,
      "similarity": 7835,
      "sessions": 7836,
      "religion": 7837,
      "Bayes": 7838,
      "prominent": 7839,
      "propag": 7840,
      "Agr": 7841,
      "RE": 7842,
      "UK": 7843,
      "cau": 7844,
      "fought": 7845,
      "zation": 7846,
      "invention": 7847,
      "orm": 7848,
      "alcohol": 7849,
      "official": 7850,
      "seat": 7851,
      "proceed": 7852,
      "constrain": 7853,
      "emon": 7854,
      "portive": 7855,
      "artists": 7856,
      "evil": 7857,
      "elephant": 7858,
      "carpooling": 7859,
      "designer": 7860,
      "profits": 7861,
      "multiplying": 7862,
      "removed": 7863,
      "Success": 7864,
      "breathe": 7865,
      "USA": 7866,
      "respectful": 7867,
      "passionate": 7868,
      "Character": 7869,
      "refreshing": 7870,
      "dimensional": 7871,
      "Sustainable": 7872,
      "commercial": 7873,
      "Blockchain": 7874,
      "Er": 7875,
      "scar": 7876,
      "west": 7877,
      "atility": 7878,
      "toy": 7879,
      "forgot": 7880,
      "dium": 7881,
      "divisible": 7882,
      "wearing": 7883,
      "interior": 7884,
      "customized": 7885,
      "managers": 7886,
      "medication": 7887,
      "coral": 7888,
      "minced": 7889,
      "passengers": 7890,
      "representatives": 7891,
      "titute": 7892,
      "malicious": 7893,
      "determining": 7894,
      "recorded": 7895,
      "Subs": 7896,
      "remainder": 7897,
      "Grand": 7898,
      "delivered": 7899,
      "mechanism": 7900,
      "respectively": 7901,
      "preparation": 7902,
      "astronom": 7903,
      "duration": 7904,
      "quote": 7905,
      "flooding": 7906,
      "Democr": 7907,
      "Cedric": 7908,
      "Bank": 7909,
      "Braz": 7910,
      "ON": 7911,
      "overs": 7912,
      "ini": 7913,
      "reef": 7914,
      "impression": 7915,
      "apolog": 7916,
      "weap": 7917,
      "Thanks": 7918,
      "angular": 7919,
      "caf": 7920,
      "completion": 7921,
      "shares": 7922,
      "login": 7923,
      "rainforest": 7924,
      "III": 7925,
      "alien": 7926,
      "diagnose": 7927,
      "--------------------------------": 7928,
      "inoa": 7929,
      "Samsung": 7930,
      "reinforcement": 7931,
      "Lastly": 7932,
      "steady": 7933,
      "Predictive": 7934,
      "portfolio": 7935,
      "Sen": 7936,
      "`:": 7937,
      "ccoli": 7938,
      "fake": 7939,
      "ugging": 7940,
      "x1": 7941,
      "tie": 7942,
      "wasn": 7943,
      "delicate": 7944,
      "observation": 7945,
      "corre": 7946,
      "patience": 7947,
      "naturally": 7948,
      "cellular": 7949,
      "config": 7950,
      "Apples": 7951,
      "squared": 7952,
      "drawn": 7953,
      "introducing": 7954,
      "Improve": 7955,
      "implies": 7956,
      "disrupt": 7957,
      "mutual": 7958,
      "federal": 7959,
      "circuit": 7960,
      "Pacific": 7961,
      "Brazil": 7962,
      "Del": 7963,
      "Gar": 7964,
      "Mich": 7965,
      "pig": 7966,
      "──": 7967,
      "retire": 7968,
      "resent": 7969,
      "unk": 7970,
      "dupl": 7971,
      "landfills": 7972,
      "subjective": 7973,
      "Always": 7974,
      "bananas": 7975,
      "princess": 7976,
      "lining": 7977,
      "politics": 7978,
      "encouraged": 7979,
      "Visual": 7980,
      "Secondly": 7981,
      "Maintain": 7982,
      "ratings": 7983,
      "derived": 7984,
      "insert": 7985,
      "smell": 7986,
      "Brow": 7987,
      "East": 7988,
      "Lar": 7989,
      "ffy": 7990,
      "anth": 7991,
      "toler": 7992,
      "achel": 7993,
      "boiling": 7994,
      "highlighting": 7995,
      "cutive": 7996,
      "automating": 7997,
      "extended": 7998,
      "answering": 7999,
      "declar": 8000,
      "arrive": 8001,
      "contributes": 8002,
      "Focus": 8003,
      "recipient": 8004,
      "droughts": 8005,
      "nucleus": 8006,
      "explicitly": 8007,
      "cautious": 8008,
      "Mis": 8009,
      "Press": 8010,
      "Table": 8011,
      "_id": 8012,
      "ived": 8013,
      "san": 8014,
      "leisure": 8015,
      "loans": 8016,
      "sumed": 8017,
      "gear": 8018,
      "neck": 8019,
      "mage": 8020,
      "quiz": 8021,
      "coal": 8022,
      "emission": 8023,
      "ackers": 8024,
      "corrup": 8025,
      "supportive": 8026,
      "thane": 8027,
      "presenting": 8028,
      "treated": 8029,
      "hotel": 8030,
      "magnific": 8031,
      "raising": 8032,
      "satisfying": 8033,
      "methodo": 8034,
      "integral": 8035,
      "German": 8036,
      "launched": 8037,
      "honor": 8038,
      "Priv": 8039,
      "Forest": 8040,
      "injuries": 8041,
      "antioxidants": 8042,
      "Yeah": 8043,
      "Egg": 8044,
      "Sch": 8045,
      "_numbers": 8046,
      "aes": 8047,
      "aids": 8048,
      "fishing": 8049,
      "hoo": 8050,
      "sin": 8051,
      "vow": 8052,
      "intake": 8053,
      "tial": 8054,
      "olf": 8055,
      "shirt": 8056,
      "outdoors": 8057,
      "sized": 8058,
      "Innov": 8059,
      "parking": 8060,
      "crum": 8061,
      "sold": 8062,
      "regulation": 8063,
      "joys": 8064,
      "cule": 8065,
      "facilities": 8066,
      "measuring": 8067,
      "happens": 8068,
      "feeding": 8069,
      "metabol": 8070,
      "inspiration": 8071,
      "interpretation": 8072,
      "violence": 8073,
      "democratic": 8074,
      "scenario": 8075,
      "robotics": 8076,
      "clause": 8077,
      "coherent": 8078,
      "elder": 8079,
      "78": 8080,
      "><": 8081,
      "Bio": 8082,
      "Call": 8083,
      "Mental": 8084,
      "Orange": 8085,
      "Tex": 8086,
      "tary": 8087,
      "tives": 8088,
      "sug": 8089,
      "terri": 8090,
      "grace": 8091,
      "curiosity": 8092,
      "parameter": 8093,
      "obes": 8094,
      "Chris": 8095,
      "singing": 8096,
      "tility": 8097,
      "Although": 8098,
      "happening": 8099,
      "Import": 8100,
      "bottle": 8101,
      "Arctic": 8102,
      "scatter": 8103,
      "towering": 8104,
      "Robo": 8105,
      "decreases": 8106,
      "float": 8107,
      "priority": 8108,
      "String": 8109,
      "developer": 8110,
      "snack": 8111,
      "laptops": 8112,
      "difficulties": 8113,
      "tags": 8114,
      "frustration": 8115,
      "Eliza": 8116,
      "76": 8117,
      "95": 8118,
      "Cu": 8119,
      "God": 8120,
      "Jour": 8121,
      "Night": 8122,
      "Watch": 8123,
      "ians": 8124,
      "mol": 8125,
      "recover": 8126,
      "attitude": 8127,
      "ulating": 8128,
      "cope": 8129,
      "agent": 8130,
      "endment": 8131,
      "preprocessing": 8132,
      "ometric": 8133,
      "minor": 8134,
      "finite": 8135,
      "lifetime": 8136,
      "centers": 8137,
      "lesson": 8138,
      "Proper": 8139,
      "showed": 8140,
      "safely": 8141,
      "fortun": 8142,
      "definitely": 8143,
      "screens": 8144,
      "directions": 8145,
      "rolled": 8146,
      "molecule": 8147,
      "possibility": 8148,
      "rewarding": 8149,
      "inflation": 8150,
      "clicking": 8151,
      "conclusions": 8152,
      "rhythm": 8153,
      "earlier": 8154,
      "46": 8155,
      "Da": 8156,
      "Mountain": 8157,
      "PE": 8158,
      "Treat": 8159,
      "cave": 8160,
      "tro": 8161,
      "x2": 8162,
      "react": 8163,
      "enters": 8164,
      "beloved": 8165,
      "quad": 8166,
      "avel": 8167,
      "bohydr": 8168,
      "acknow": 8169,
      "cord": 8170,
      "requiring": 8171,
      "20th": 8172,
      "ody": 8173,
      "Recycling": 8174,
      "personalize": 8175,
      "landmarks": 8176,
      "societal": 8177,
      "painted": 8178,
      "legisl": 8179,
      "burden": 8180,
      "wonders": 8181,
      "participating": 8182,
      "exceed": 8183,
      "celebrated": 8184,
      "hydrated": 8185,
      "dollar": 8186,
      "shadows": 8187,
      "credibility": 8188,
      "Cat": 8189,
      "Ever": 8190,
      "anch": 8191,
      "devi": 8192,
      "sus": 8193,
      "urable": 8194,
      "expon": 8195,
      "perman": 8196,
      "White": 8197,
      "court": 8198,
      "audiences": 8199,
      "calculating": 8200,
      "influential": 8201,
      "nutrient": 8202,
      "speakers": 8203,
      "indicators": 8204,
      "Strate": 8205,
      "Perform": 8206,
      "infection": 8207,
      "Dogs": 8208,
      "wheel": 8209,
      "recycled": 8210,
      "obesity": 8211,
      "((": 8212,
      "5G": 8213,
      "Along": 8214,
      "Cong": 8215,
      "Host": 8216,
      "SA": 8217,
      "Sincerely": 8218,
      "Vari": 8219,
      "scul": 8220,
      "replaced": 8221,
      "esteem": 8222,
      "allocate": 8223,
      "itarian": 8224,
      "stated": 8225,
      "ador": 8226,
      "comment": 8227,
      "diets": 8228,
      "soo": 8229,
      "cop": 8230,
      "colo": 8231,
      "ishment": 8232,
      "trial": 8233,
      "designated": 8234,
      "beings": 8235,
      "instances": 8236,
      "engineers": 8237,
      "casual": 8238,
      "accepted": 8239,
      "ixel": 8240,
      "dynamics": 8241,
      "ensus": 8242,
      "wooden": 8243,
      "incentivi": 8244,
      "filtering": 8245,
      "modified": 8246,
      "retriev": 8247,
      "Flexibility": 8248,
      "Action": 8249,
      "Grow": 8250,
      "Learn": 8251,
      "SV": 8252,
      "Spread": 8253,
      "aqu": 8254,
      "eight": 8255,
      "fate": 8256,
      "sway": 8257,
      "y1": 8258,
      "itable": 8259,
      "proven": 8260,
      "adult": 8261,
      "reson": 8262,
      "restore": 8263,
      "gran": 8264,
      "ventions": 8265,
      "inviting": 8266,
      "frag": 8267,
      "mystery": 8268,
      "giene": 8269,
      "Carbon": 8270,
      "Healthcare": 8271,
      "installation": 8272,
      "nitrogen": 8273,
      "vacuum": 8274,
      "fatigue": 8275,
      "vulnerabilities": 8276,
      "Analyze": 8277,
      "astron": 8278,
      "trigger": 8279,
      "notifications": 8280,
      "hesitate": 8281,
      "Initialize": 8282,
      "pivot": 8283,
      "Alternatively": 8284,
      "derivative": 8285,
      ".”": 8286,
      "March": 8287,
      "Whis": 8288,
      "ael": 8289,
      "gating": 8290,
      "missions": 8291,
      "pm": 8292,
      "wed": 8293,
      "trap": 8294,
      "ague": 8295,
      "compounds": 8296,
      "Consum": 8297,
      "tablets": 8298,
      "laid": 8299,
      "swap": 8300,
      "instrument": 8301,
      "freshly": 8302,
      "relaxing": 8303,
      "Feed": 8304,
      "Divide": 8305,
      "electro": 8306,
      "Continue": 8307,
      "isolation": 8308,
      "attempts": 8309,
      "insects": 8310,
      "pleasant": 8311,
      "magnificent": 8312,
      "Bur": 8313,
      "DO": 8314,
      "Dri": 8315,
      "uck": 8316,
      "ales": 8317,
      "ulary": 8318,
      "idiom": 8319,
      "peel": 8320,
      "illum": 8321,
      "artistic": 8322,
      "chef": 8323,
      "viewers": 8324,
      "dried": 8325,
      "knows": 8326,
      "bones": 8327,
      "sale": 8328,
      "negatively": 8329,
      "missed": 8330,
      "Warm": 8331,
      "mechanical": 8332,
      "reported": 8333,
      "Electric": 8334,
      "insulation": 8335,
      "chips": 8336,
      "Memory": 8337,
      "tranquility": 8338,
      "granted": 8339,
      "Bill": 8340,
      "Did": 8341,
      "Low": 8342,
      "Navig": 8343,
      "Parti": 8344,
      "matt": 8345,
      "sour": 8346,
      "toys": 8347,
      "sex": 8348,
      "peti": 8349,
      "shot": 8350,
      "gradient": 8351,
      "inclusion": 8352,
      "finances": 8353,
      "planned": 8354,
      "Changes": 8355,
      "currencies": 8356,
      "shower": 8357,
      "namon": 8358,
      "attending": 8359,
      "pathetic": 8360,
      "explored": 8361,
      "slides": 8362,
      "Order": 8363,
      "execution": 8364,
      "pull": 8365,
      "Promoting": 8366,
      "Limited": 8367,
      "suspicious": 8368,
      "accommo": 8369,
      "AB": 8370,
      "Pic": 8371,
      "Quality": 8372,
      "`(": 8373,
      "hund": 8374,
      "mim": 8375,
      "nom": 8376,
      "pine": 8377,
      "pitch": 8378,
      "vous": 8379,
      "yard": 8380,
      "anut": 8381,
      "reporting": 8382,
      "assets": 8383,
      "leap": 8384,
      "forth": 8385,
      "aded": 8386,
      "dialog": 8387,
      "shred": 8388,
      "Stor": 8389,
      "Read": 8390,
      "booking": 8391,
      "tribute": 8392,
      "purchased": 8393,
      "extin": 8394,
      "detecting": 8395,
      "destinations": 8396,
      "conducted": 8397,
      "Party": 8398,
      "strokes": 8399,
      "balloon": 8400,
      "68": 8401,
      "Dire": 8402,
      "Mor": 8403,
      "_number": 8404,
      "bors": 8405,
      "cable": 8406,
      "ki": 8407,
      "wake": 8408,
      "yes": 8409,
      "reuse": 8410,
      "tip": 8411,
      "tivity": 8412,
      "deck": 8413,
      "atell": 8414,
      "codes": 8415,
      "Answ": 8416,
      "captures": 8417,
      "cloves": 8418,
      "faceted": 8419,
      "employers": 8420,
      "globe": 8421,
      "magnit": 8422,
      "mistry": 8423,
      "Price": 8424,
      "recommendation": 8425,
      "strengthen": 8426,
      "Robots": 8427,
      "Sea": 8428,
      "petu": 8429,
      "installing": 8430,
      "paste": 8431,
      "Speed": 8432,
      "Fibonacci": 8433,
      "groceries": 8434,
      "injury": 8435,
      "---|": 8436,
      "Launch": 8437,
      "discipline": 8438,
      "hospital": 8439,
      "Optimize": 8440,
      "suffering": 8441,
      "blanket": 8442,
      "punctuation": 8443,
      "wavering": 8444,
      "retirement": 8445,
      "elderly": 8446,
      "colored": 8447,
      "Fro": 8448,
      "Ken": 8449,
      "Lat": 8450,
      "Rain": 8451,
      "Tree": 8452,
      "Tower": 8453,
      "lake": 8454,
      "llect": 8455,
      "pil": 8456,
      "rare": 8457,
      "thri": 8458,
      "anom": 8459,
      "reds": 8460,
      "theses": 8461,
      "aste": 8462,
      "defeat": 8463,
      "chir": 8464,
      "tionally": 8465,
      "notice": 8466,
      "soccer": 8467,
      "Inser": 8468,
      "curve": 8469,
      "eason": 8470,
      "register": 8471,
      "2000": 8472,
      "joining": 8473,
      "continually": 8474,
      "Compare": 8475,
      "coverage": 8476,
      "shops": 8477,
      "demands": 8478,
      "drople": 8479,
      "varying": 8480,
      "decades": 8481,
      "authorities": 8482,
      "emerging": 8483,
      "diagnoses": 8484,
      "Mean": 8485,
      "demographics": 8486,
      "HTTP": 8487,
      "regarding": 8488,
      "mistake": 8489,
      "coordinates": 8490,
      "exactly": 8491,
      "rabbit": 8492,
      "AS": 8493,
      "Ari": 8494,
      "Bake": 8495,
      "Book": 8496,
      "Future": 8497,
      "RNA": 8498,
      "Sing": 8499,
      "ault": 8500,
      "tox": 8501,
      "isn": 8502,
      "methane": 8503,
      "Though": 8504,
      "perpetu": 8505,
      "pleasure": 8506,
      "ticket": 8507,
      "prev": 8508,
      "avir": 8509,
      "contam": 8510,
      "deser": 8511,
      "render": 8512,
      "afood": 8513,
      "Anna": 8514,
      "stove": 8515,
      "advers": 8516,
      "Stand": 8517,
      "stepped": 8518,
      "understandings": 8519,
      "readable": 8520,
      "substances": 8521,
      "impacted": 8522,
      "showers": 8523,
      "Americans": 8524,
      "Move": 8525,
      "interpreted": 8526,
      "civilization": 8527,
      "beneath": 8528,
      "sufficient": 8529,
      "router": 8530,
      "phenomena": 8531,
      "attempt": 8532,
      "accounting": 8533,
      "philosophy": 8534,
      "tactics": 8535,
      "fosters": 8536,
      "William": 8537,
      "vinegar": 8538,
      "ratio": 8539,
      "constraints": 8540,
      "Galaxy": 8541,
      "Loo": 8542,
      "Link": 8543,
      "Ox": 8544,
      "Smo": 8545,
      "Spain": 8546,
      "])": 8547,
      "lig": 8548,
      "mates": 8549,
      "sest": 8550,
      "proportion": 8551,
      "amed": 8552,
      "embark": 8553,
      "augment": 8554,
      "closest": 8555,
      "distancing": 8556,
      "majestic": 8557,
      "storytelling": 8558,
      "lowercase": 8559,
      "ordinary": 8560,
      "travelers": 8561,
      "adjusted": 8562,
      "remained": 8563,
      "rub": 8564,
      "Developing": 8565,
      "creamy": 8566,
      "utilize": 8567,
      "Analytics": 8568,
      "reputable": 8569,
      "tuning": 8570,
      "stroke": 8571,
      "Connect": 8572,
      "hurricanes": 8573,
      "parallel": 8574,
      "Children": 8575,
      "inhabitants": 8576,
      "HR": 8577,
      "Hen": 8578,
      "Ham": 8579,
      "Pat": 8580,
      "Ter": 8581,
      "nav": 8582,
      "ander": 8583,
      "ardi": 8584,
      "ching": 8585,
      "trading": 8586,
      "crete": 8587,
      "sian": 8588,
      "boat": 8589,
      "discount": 8590,
      "customize": 8591,
      "carbohydr": 8592,
      "skies": 8593,
      "breaches": 8594,
      "capturing": 8595,
      "operational": 8596,
      "collective": 8597,
      "titudes": 8598,
      "descriptive": 8599,
      "determines": 8600,
      "milest": 8601,
      "parent": 8602,
      "hike": 8603,
      "tourism": 8604,
      "Hyper": 8605,
      "pheric": 8606,
      "drugs": 8607,
      "recipes": 8608,
      "sorcerer": 8609,
      "47": 8610,
      "Clo": 8611,
      "Lou": 8612,
      "Mount": 8613,
      "Scal": 8614,
      "bin": 8615,
      "gal": 8616,
      "tides": 8617,
      "entering": 8618,
      "female": 8619,
      "sip": 8620,
      "indo": 8621,
      "awn": 8622,
      "Recog": 8623,
      "depic": 8624,
      "keyword": 8625,
      "hygiene": 8626,
      "maintained": 8627,
      "App": 8628,
      "trait": 8629,
      "planting": 8630,
      "lifes": 8631,
      "holiday": 8632,
      "worthy": 8633,
      "accomplished": 8634,
      "doubt": 8635,
      "accomplishment": 8636,
      "clustering": 8637,
      "Banana": 8638,
      "administrative": 8639,
      "avirus": 8640,
      "Aust": 8641,
      "Battle": 8642,
      "Dav": 8643,
      "Museum": 8644,
      "Western": 8645,
      "fir": 8646,
      "sne": 8647,
      "samples": 8648,
      "iner": 8649,
      "encompass": 8650,
      "andon": 8651,
      "adm": 8652,
      "extraction": 8653,
      "prey": 8654,
      "medications": 8655,
      "jected": 8656,
      "playful": 8657,
      "shoulder": 8658,
      "accessories": 8659,
      "viewer": 8660,
      "hole": 8661,
      "landing": 8662,
      "multiply": 8663,
      "Explo": 8664,
      "tituting": 8665,
      "freeing": 8666,
      "Moder": 8667,
      "Discus": 8668,
      "norm": 8669,
      "borrow": 8670,
      "Post": 8671,
      "rotation": 8672,
      "whisper": 8673,
      "Automation": 8674,
      "gratitude": 8675,
      "History": 8676,
      "Due": 8677,
      "Fact": 8678,
      "Hand": 8679,
      "Sor": 8680,
      "bars": 8681,
      "baked": 8682,
      "kids": 8683,
      "onavirus": 8684,
      "acon": 8685,
      "sectors": 8686,
      "celes": 8687,
      "geothermal": 8688,
      "mobility": 8689,
      "tears": 8690,
      "unwavering": 8691,
      "lowest": 8692,
      "aft": 8693,
      "ensions": 8694,
      "occurren": 8695,
      "checkout": 8696,
      "compliance": 8697,
      "resolved": 8698,
      "grades": 8699,
      "historic": 8700,
      "client": 8701,
      "Charles": 8702,
      "straightforward": 8703,
      "clarity": 8704,
      "encountered": 8705,
      "therapy": 8706,
      "fabric": 8707,
      "Agric": 8708,
      "quadr": 8709,
      "52": 8710,
      "bite": 8711,
      "rus": 8712,
      "wizard": 8713,
      "inno": 8714,
      "recording": 8715,
      "recru": 8716,
      "abandon": 8717,
      "conveys": 8718,
      "uncover": 8719,
      "quarter": 8720,
      "perseverance": 8721,
      "Incorporate": 8722,
      "ifies": 8723,
      "earned": 8724,
      "cakes": 8725,
      "crash": 8726,
      "flights": 8727,
      "Regression": 8728,
      "drinking": 8729,
      "reads": 8730,
      "economics": 8731,
      "vocab": 8732,
      "combining": 8733,
      "sleeping": 8734,
      "centered": 8735,
      "relaxed": 8736,
      "Improving": 8737,
      "distinctive": 8738,
      "belongs": 8739,
      "masterpiece": 8740,
      "Team": 8741,
      "iciency": 8742,
      "Russia": 8743,
      "palindrome": 8744,
      "vocabulary": 8745,
      "Log": 8746,
      "Testing": 8747,
      "Vi": 8748,
      "West": 8749,
      "kne": 8750,
      "tent": 8751,
      "toss": 8752,
      "steep": 8753,
      "mented": 8754,
      "divers": 8755,
      "ured": 8756,
      "straws": 8757,
      "prince": 8758,
      "phy": 8759,
      "phants": 8760,
      "interacting": 8761,
      "bris": 8762,
      "consisting": 8763,
      "operator": 8764,
      "multimedia": 8765,
      "Tradi": 8766,
      "panel": 8767,
      "Newton": 8768,
      "defines": 8769,
      "definition": 8770,
      "nearly": 8771,
      "batteries": 8772,
      "crowd": 8773,
      "scenarios": 8774,
      "thoroughly": 8775,
      "Imagine": 8776,
      "penalty": 8777,
      "Safety": 8778,
      "shredded": 8779,
      "magnitude": 8780,
      "Sat": 8781,
      "bally": 8782,
      "bought": 8783,
      "hire": 8784,
      "mur": 8785,
      "orest": 8786,
      "sors": 8787,
      "slower": 8788,
      "y2": 8789,
      "onts": 8790,
      "till": 8791,
      "astern": 8792,
      "rocks": 8793,
      "hearing": 8794,
      "oma": 8795,
      "ola": 8796,
      "terr": 8797,
      "peare": 8798,
      "utens": 8799,
      "vesting": 8800,
      "manually": 8801,
      "knight": 8802,
      "minds": 8803,
      "Animal": 8804,
      "capes": 8805,
      "Develo": 8806,
      "volumes": 8807,
      "childhood": 8808,
      "misunderstandings": 8809,
      "Shakes": 8810,
      "separated": 8811,
      "earthqu": 8812,
      "silver": 8813,
      "profitability": 8814,
      "resistant": 8815,
      "discrimin": 8816,
      "Writing": 8817,
      "ATP": 8818,
      "adopt": 8819,
      "respiration": 8820,
      "fascinating": 8821,
      "luxury": 8822,
      "refrigerator": 8823,
      "Stir": 8824,
      "Feedback": 8825,
      "<!": 8826,
      "Equ": 8827,
      "Isa": 8828,
      "Jup": 8829,
      "Mad": 8830,
      "VR": 8831,
      "mask": 8832,
      "tled": 8833,
      "asset": 8834,
      "leaf": 8835,
      "decentralized": 8836,
      "debris": 8837,
      "plain": 8838,
      "perimeter": 8839,
      "dule": 8840,
      "clin": 8841,
      "Inside": 8842,
      "carni": 8843,
      "cissors": 8844,
      "reless": 8845,
      "Any": 8846,
      "longed": 8847,
      "drag": 8848,
      "involving": 8849,
      "lette": 8850,
      "operates": 8851,
      "pressed": 8852,
      "characteristic": 8853,
      "confusion": 8854,
      "vegetation": 8855,
      "Click": 8856,
      "Atl": 8857,
      "Grou": 8858,
      "routes": 8859,
      "smoothie": 8860,
      "weekend": 8861,
      "carrying": 8862,
      "exhibit": 8863,
      "hyperparameters": 8864,
      "Elizabeth": 8865,
      "sculpt": 8866,
      "Storage": 8867,
      "Shakespeare": 8868,
      "Active": 8869,
      "Rich": 8870,
      "bic": 8871,
      "dancing": 8872,
      "migration": 8873,
      "ws": 8874,
      "inconvenience": 8875,
      "theft": 8876,
      "allocation": 8877,
      "tireless": 8878,
      "imaging": 8879,
      "Index": 8880,
      "opponent": 8881,
      "desires": 8882,
      "notation": 8883,
      "tenuse": 8884,
      "parad": 8885,
      "certi": 8886,
      "lessness": 8887,
      "intellect": 8888,
      "happily": 8889,
      "fluid": 8890,
      "securely": 8891,
      "originated": 8892,
      "frameworks": 8893,
      "fundament": 8894,
      "scratch": 8895,
      "alaxies": 8896,
      "loose": 8897,
      "retailers": 8898,
      "Collaboration": 8899,
      "troubles": 8900,
      "Chatbots": 8901,
      "Linear": 8902,
      "accommodate": 8903,
      "Aim": 8904,
      "Fill": 8905,
      "Mach": 8906,
      "Page": 8907,
      "Right": 8908,
      "Soph": 8909,
      "Vers": 8910,
      "Wall": 8911,
      "Wear": 8912,
      "oh": 8913,
      "chi": 8914,
      "bees": 8915,
      "loves": 8916,
      "suits": 8917,
      "proverb": 8918,
      "lyrics": 8919,
      "modes": 8920,
      "verage": 8921,
      "melt": 8922,
      "bye": 8923,
      "tick": 8924,
      "pret": 8925,
      "brighter": 8926,
      "delay": 8927,
      "bugs": 8928,
      "smiled": 8929,
      "Stre": 8930,
      "Chic": 8931,
      "programmer": 8932,
      "trem": 8933,
      "sunshine": 8934,
      "considerations": 8935,
      "enhances": 8936,
      "globally": 8937,
      "compete": 8938,
      "floods": 8939,
      "resolving": 8940,
      "Present": 8941,
      "chron": 8942,
      "quantities": 8943,
      "instantly": 8944,
      "crowded": 8945,
      "Services": 8946,
      "tuce": 8947,
      "colonies": 8948,
      "Advanced": 8949,
      "cinnamon": 8950,
      "moisture": 8951,
      "turbines": 8952,
      "manufacturer": 8953,
      "Include": 8954,
      "reefs": 8955,
      "aesthetic": 8956,
      "Particip": 8957,
      "mimic": 8958,
      "43": 8959,
      "Ask": 8960,
      "Bang": 8961,
      "EN": 8962,
      "Image": 8963,
      "PC": 8964,
      "Van": 8965,
      "daughter": 8966,
      "mile": 8967,
      "relying": 8968,
      "ita": 8969,
      "actic": 8970,
      "respected": 8971,
      "ctural": 8972,
      "perhaps": 8973,
      "grilled": 8974,
      "hasht": 8975,
      "aust": 8976,
      "greens": 8977,
      "Advant": 8978,
      "applies": 8979,
      "hybrid": 8980,
      "controlling": 8981,
      "appeared": 8982,
      "Nobel": 8983,
      "vegetarian": 8984,
      "evolved": 8985,
      "Cool": 8986,
      "smoking": 8987,
      "football": 8988,
      "reflection": 8989,
      "seasons": 8990,
      "prompts": 8991,
      "Vector": 8992,
      "disruptions": 8993,
      "captured": 8994,
      "Poll": 8995,
      "Siri": 8996,
      "hospit": 8997,
      "hobbies": 8998,
      "hazard": 8999,
      "tutorials": 9000,
      "persuasive": 9001,
      "tackle": 9002,
      "arithmetic": 9003,
      "thermostat": 9004,
      "Large": 9005,
      "Explore": 9006,
      "hashtag": 9007,
      "4x": 9008,
      "Dream": 9009,
      "Eat": 9010,
      "Fer": 9011,
      "Flow": 9012,
      "Slow": 9013,
      "Season": 9014,
      "hail": 9015,
      "hoods": 9016,
      "nish": 9017,
      "pse": 9018,
      "pup": 9019,
      "sought": 9020,
      "satell": 9021,
      "thy": 9022,
      "erup": 9023,
      "reme": 9024,
      "remark": 9025,
      "hex": 9026,
      "decade": 9027,
      "consumed": 9028,
      "nearest": 9029,
      "unpredictable": 9030,
      "Things": 9031,
      "Influ": 9032,
      "entials": 9033,
      "marking": 9034,
      "foremost": 9035,
      "settle": 9036,
      "2016": 9037,
      "Chicken": 9038,
      "my_": 9039,
      "continent": 9040,
      "Dece": 9041,
      "delivers": 9042,
      "legend": 9043,
      "burst": 9044,
      "perfectly": 9045,
      "discussing": 9046,
      "integrate": 9047,
      "Consist": 9048,
      "winner": 9049,
      "entirely": 9050,
      "factorial": 9051,
      "summarize": 9052,
      "Programming": 9053,
      "conferencing": 9054,
      "Queen": 9055,
      "utensils": 9056,
      "Aut": 9057,
      "Dar": 9058,
      "Golden": 9059,
      "Lap": 9060,
      "Rising": 9061,
      "dairy": 9062,
      "gam": 9063,
      "nut": 9064,
      "sends": 9065,
      "spoon": 9066,
      "ux": 9067,
      "vance": 9068,
      "vals": 9069,
      "zers": 9070,
      "ths": 9071,
      "ala": 9072,
      "arc": 9073,
      "deter": 9074,
      "seed": 9075,
      "urch": 9076,
      "urgent": 9077,
      "peers": 9078,
      "empower": 9079,
      "creen": 9080,
      "jewel": 9081,
      "myself": 9082,
      "downs": 9083,
      "Conven": 9084,
      "nervous": 9085,
      "learners": 9086,
      "fluffy": 9087,
      "photography": 9088,
      "norms": 9089,
      "Lee": 9090,
      "paintings": 9091,
      "Outro": 9092,
      "perceived": 9093,
      "obtained": 9094,
      "stimulate": 9095,
      "transmitted": 9096,
      "suddenly": 9097,
      "\"\"\"": 9098,
      "Berlin": 9099,
      "Establish": 9100,
      "orestation": 9101,
      "Chicago": 9102,
      "54": 9103,
      "79": 9104,
      "Lower": 9105,
      "[\"": 9106,
      "gri": 9107,
      "ological": 9108,
      "thunder": 9109,
      "isy": 9110,
      "segments": 9111,
      "seafood": 9112,
      "chase": 9113,
      "bean": 9114,
      "urated": 9115,
      "mead": 9116,
      "mentation": 9117,
      "fears": 9118,
      "wels": 9119,
      "umin": 9120,
      "entity": 9121,
      "boil": 9122,
      "velocity": 9123,
      "relativity": 9124,
      "cheaper": 9125,
      "guided": 9126,
      "analytical": 9127,
      "Declar": 9128,
      "queen": 9129,
      "expan": 9130,
      "particle": 9131,
      "achievement": 9132,
      "basil": 9133,
      "displaying": 9134,
      "Rock": 9135,
      "volutional": 9136,
      "discovering": 9137,
      "Manager": 9138,
      "welcoming": 9139,
      "demographic": 9140,
      "absorbed": 9141,
      "belonging": 9142,
      "accomplishments": 9143,
      "cherry": 9144,
      "cott": 9145,
      "whisk": 9146,
      "promised": 9147,
      "Starting": 9148,
      "communicating": 9149,
      "substance": 9150,
      "distinguish": 9151,
      "Insert": 9152,
      "Traditional": 9153,
      "December": 9154,
      "Mi": 9155,
      "Mil": 9156,
      "Vide": 9157,
      "galaxies": 9158,
      "hat": 9159,
      "va": 9160,
      "encryp": 9161,
      "oline": 9162,
      "conserving": 9163,
      "cium": 9164,
      "umb": 9165,
      "opt": 9166,
      "opens": 9167,
      "oblig": 9168,
      "forecasting": 9169,
      "Remo": 9170,
      "Adapt": 9171,
      "giant": 9172,
      "partners": 9173,
      "Sometimes": 9174,
      "Array": 9175,
      "glac": 9176,
      "farmer": 9177,
      "atmospheric": 9178,
      "compares": 9179,
      "crystal": 9180,
      "prioriti": 9181,
      "Negative": 9182,
      "hypotenuse": 9183,
      "coordination": 9184,
      "glasses": 9185,
      "cherish": 9186,
      "jungle": 9187,
      "neighborhood": 9188,
      "rustling": 9189,
      "Fruits": 9190,
      "Differ": 9191,
      "precedented": 9192,
      "partnerships": 9193,
      "Michael": 9194,
      "soothing": 9195,
      "85": 9196,
      "Hence": 9197,
      "IS": 9198,
      "Sign": 9199,
      "Ur": 9200,
      "Wil": 9201,
      "jump": 9202,
      "mammal": 9203,
      "pounds": 9204,
      "saves": 9205,
      "wage": 9206,
      "revol": 9207,
      "accus": 9208,
      "propor": 9209,
      "amic": 9210,
      "lium": 9211,
      "pod": 9212,
      "outfit": 9213,
      "evapor": 9214,
      "overfitting": 9215,
      "interfaces": 9216,
      "tasking": 9217,
      "institution": 9218,
      "puzz": 9219,
      "wrap": 9220,
      "defense": 9221,
      "demanding": 9222,
      "conventional": 9223,
      "gestures": 9224,
      "decreasing": 9225,
      "referring": 9226,
      "routines": 9227,
      "touches": 9228,
      "recognizable": 9229,
      "Island": 9230,
      "fairness": 9231,
      "bulb": 9232,
      "neuron": 9233,
      "boosting": 9234,
      "grandmother": 9235,
      "metric": 9236,
      "Summary": 9237,
      "scans": 9238,
      "stretching": 9239,
      "entrepreneurs": 9240,
      "retrieval": 9241,
      "differentiate": 9242,
      "Prioritize": 9243,
      "Scientists": 9244,
      "almond": 9245,
      "virtually": 9246,
      "Congress": 9247,
      "territor": 9248,
      "350": 9249,
      "88": 9250,
      "Ly": 9251,
      "Ven": 9252,
      "Wide": 9253,
      "Wild": 9254,
      "XY": 9255,
      "centi": 9256,
      "nights": 9257,
      "sail": 9258,
      "slip": 9259,
      "},": 9260,
      "terol": 9261,
      "tsp": 9262,
      "unks": 9263,
      "agencies": 9264,
      "inetic": 9265,
      "timeless": 9266,
      "seren": 9267,
      "fragr": 9268,
      "wellness": 9269,
      "tainment": 9270,
      "lightweight": 9271,
      "username": 9272,
      "letes": 9273,
      "costly": 9274,
      "identification": 9275,
      "startup": 9276,
      "offerings": 9277,
      "targeting": 9278,
      "oneself": 9279,
      "raises": 9280,
      "legacy": 9281,
      "midst": 9282,
      "biological": 9283,
      "horse": 9284,
      "hormon": 9285,
      "fixing": 9286,
      "reasonable": 9287,
      "hunting": 9288,
      "infections": 9289,
      "cyberbullying": 9290,
      "climb": 9291,
      "Organization": 9292,
      "tuned": 9293,
      "seamlessly": 9294,
      "chairs": 9295,
      "olesterol": 9296,
      "accommod": 9297,
      "psychological": 9298,
      "Employees": 9299,
      "recursive": 9300,
      "Happy": 9301,
      "adventurous": 9302,
      "Henry": 9303,
      "56": 9304,
      "<<": 9305,
      "Four": 9306,
      "Men": 9307,
      "Paper": 9308,
      "flip": 9309,
      "kick": 9310,
      "las": 9311,
      "western": 9312,
      "enzy": 9313,
      "vember": 9314,
      "semi": 9315,
      "ami": 9316,
      "conve": 9317,
      "conut": 9318,
      "terrain": 9319,
      "soy": 9320,
      "pra": 9321,
      "ometer": 9322,
      "ango": 9323,
      "taugh": 9324,
      "disposal": 9325,
      "relational": 9326,
      "struck": 9327,
      "versions": 9328,
      "Advert": 9329,
      "ifications": 9330,
      "1960": 9331,
      "1990": 9332,
      "guitar": 9333,
      "concerned": 9334,
      "News": 9335,
      "Liber": 9336,
      "discoveries": 9337,
      "precious": 9338,
      "categorized": 9339,
      "categorize": 9340,
      "Meditation": 9341,
      "converts": 9342,
      "wealthy": 9343,
      "infected": 9344,
      "scenes": 9345,
      "Represent": 9346,
      "segmentation": 9347,
      "Studies": 9348,
      "refined": 9349,
      "Yoga": 9350,
      "droplets": 9351,
      "XYZ": 9352,
      "taught": 9353,
      "Body": 9354,
      "H2": 9355,
      "LL": 9356,
      "NO": 9357,
      "Pand": 9358,
      "Risk": 9359,
      "Tes": 9360,
      "`<": 9361,
      "bage": 9362,
      "batt": 9363,
      "none": 9364,
      "pad": 9365,
      "ranges": 9366,
      "ero": 9367,
      "toast": 9368,
      "itage": 9369,
      "cholesterol": 9370,
      "unusual": 9371,
[...]
